{
  "<pad>": 0,
  "<unk>": 1,
  "<s>": 2,
  "<|endoftext|>": 3,
  "<|javascript|>": 4,
  "<|python|>": 5,
  "<|sql|>": 6,
  "<|shell|>": 7,
  "<0x00>": 8,
  "<0x01>": 9,
  "<0x02>": 10,
  "<0x03>": 11,
  "<0x04>": 12,
  "<0x05>": 13,
  "<0x06>": 14,
  "<0x07>": 15,
  "<0x08>": 16,
  "<0x09>": 17,
  "<0x0A>": 18,
  "<0x0B>": 19,
  "<0x0C>": 20,
  "<0x0D>": 21,
  "<0x0E>": 22,
  "<0x0F>": 23,
  "<0x10>": 24,
  "<0x11>": 25,
  "<0x12>": 26,
  "<0x13>": 27,
  "<0x14>": 28,
  "<0x15>": 29,
  "<0x16>": 30,
  "<0x17>": 31,
  "<0x18>": 32,
  "<0x19>": 33,
  "<0x1A>": 34,
  "<0x1B>": 35,
  "<0x1C>": 36,
  "<0x1D>": 37,
  "<0x1E>": 38,
  "<0x1F>": 39,
  "<0x20>": 40,
  "<0x21>": 41,
  "<0x22>": 42,
  "<0x23>": 43,
  "<0x24>": 44,
  "<0x25>": 45,
  "<0x26>": 46,
  "<0x27>": 47,
  "<0x28>": 48,
  "<0x29>": 49,
  "<0x2A>": 50,
  "<0x2B>": 51,
  "<0x2C>": 52,
  "<0x2D>": 53,
  "<0x2E>": 54,
  "<0x2F>": 55,
  "<0x30>": 56,
  "<0x31>": 57,
  "<0x32>": 58,
  "<0x33>": 59,
  "<0x34>": 60,
  "<0x35>": 61,
  "<0x36>": 62,
  "<0x37>": 63,
  "<0x38>": 64,
  "<0x39>": 65,
  "<0x3A>": 66,
  "<0x3B>": 67,
  "<0x3C>": 68,
  "<0x3D>": 69,
  "<0x3E>": 70,
  "<0x3F>": 71,
  "<0x40>": 72,
  "<0x41>": 73,
  "<0x42>": 74,
  "<0x43>": 75,
  "<0x44>": 76,
  "<0x45>": 77,
  "<0x46>": 78,
  "<0x47>": 79,
  "<0x48>": 80,
  "<0x49>": 81,
  "<0x4A>": 82,
  "<0x4B>": 83,
  "<0x4C>": 84,
  "<0x4D>": 85,
  "<0x4E>": 86,
  "<0x4F>": 87,
  "<0x50>": 88,
  "<0x51>": 89,
  "<0x52>": 90,
  "<0x53>": 91,
  "<0x54>": 92,
  "<0x55>": 93,
  "<0x56>": 94,
  "<0x57>": 95,
  "<0x58>": 96,
  "<0x59>": 97,
  "<0x5A>": 98,
  "<0x5B>": 99,
  "<0x5C>": 100,
  "<0x5D>": 101,
  "<0x5E>": 102,
  "<0x5F>": 103,
  "<0x60>": 104,
  "<0x61>": 105,
  "<0x62>": 106,
  "<0x63>": 107,
  "<0x64>": 108,
  "<0x65>": 109,
  "<0x66>": 110,
  "<0x67>": 111,
  "<0x68>": 112,
  "<0x69>": 113,
  "<0x6A>": 114,
  "<0x6B>": 115,
  "<0x6C>": 116,
  "<0x6D>": 117,
  "<0x6E>": 118,
  "<0x6F>": 119,
  "<0x70>": 120,
  "<0x71>": 121,
  "<0x72>": 122,
  "<0x73>": 123,
  "<0x74>": 124,
  "<0x75>": 125,
  "<0x76>": 126,
  "<0x77>": 127,
  "<0x78>": 128,
  "<0x79>": 129,
  "<0x7A>": 130,
  "<0x7B>": 131,
  "<0x7C>": 132,
  "<0x7D>": 133,
  "<0x7E>": 134,
  "<0x7F>": 135,
  "<0x80>": 136,
  "<0x81>": 137,
  "<0x82>": 138,
  "<0x83>": 139,
  "<0x84>": 140,
  "<0x85>": 141,
  "<0x86>": 142,
  "<0x87>": 143,
  "<0x88>": 144,
  "<0x89>": 145,
  "<0x8A>": 146,
  "<0x8B>": 147,
  "<0x8C>": 148,
  "<0x8D>": 149,
  "<0x8E>": 150,
  "<0x8F>": 151,
  "<0x90>": 152,
  "<0x91>": 153,
  "<0x92>": 154,
  "<0x93>": 155,
  "<0x94>": 156,
  "<0x95>": 157,
  "<0x96>": 158,
  "<0x97>": 159,
  "<0x98>": 160,
  "<0x99>": 161,
  "<0x9A>": 162,
  "<0x9B>": 163,
  "<0x9C>": 164,
  "<0x9D>": 165,
  "<0x9E>": 166,
  "<0x9F>": 167,
  "<0xA0>": 168,
  "<0xA1>": 169,
  "<0xA2>": 170,
  "<0xA3>": 171,
  "<0xA4>": 172,
  "<0xA5>": 173,
  "<0xA6>": 174,
  "<0xA7>": 175,
  "<0xA8>": 176,
  "<0xA9>": 177,
  "<0xAA>": 178,
  "<0xAB>": 179,
  "<0xAC>": 180,
  "<0xAD>": 181,
  "<0xAE>": 182,
  "<0xAF>": 183,
  "<0xB0>": 184,
  "<0xB1>": 185,
  "<0xB2>": 186,
  "<0xB3>": 187,
  "<0xB4>": 188,
  "<0xB5>": 189,
  "<0xB6>": 190,
  "<0xB7>": 191,
  "<0xB8>": 192,
  "<0xB9>": 193,
  "<0xBA>": 194,
  "<0xBB>": 195,
  "<0xBC>": 196,
  "<0xBD>": 197,
  "<0xBE>": 198,
  "<0xBF>": 199,
  "<0xC0>": 200,
  "<0xC1>": 201,
  "<0xC2>": 202,
  "<0xC3>": 203,
  "<0xC4>": 204,
  "<0xC5>": 205,
  "<0xC6>": 206,
  "<0xC7>": 207,
  "<0xC8>": 208,
  "<0xC9>": 209,
  "<0xCA>": 210,
  "<0xCB>": 211,
  "<0xCC>": 212,
  "<0xCD>": 213,
  "<0xCE>": 214,
  "<0xCF>": 215,
  "<0xD0>": 216,
  "<0xD1>": 217,
  "<0xD2>": 218,
  "<0xD3>": 219,
  "<0xD4>": 220,
  "<0xD5>": 221,
  "<0xD6>": 222,
  "<0xD7>": 223,
  "<0xD8>": 224,
  "<0xD9>": 225,
  "<0xDA>": 226,
  "<0xDB>": 227,
  "<0xDC>": 228,
  "<0xDD>": 229,
  "<0xDE>": 230,
  "<0xDF>": 231,
  "<0xE0>": 232,
  "<0xE1>": 233,
  "<0xE2>": 234,
  "<0xE3>": 235,
  "<0xE4>": 236,
  "<0xE5>": 237,
  "<0xE6>": 238,
  "<0xE7>": 239,
  "<0xE8>": 240,
  "<0xE9>": 241,
  "<0xEA>": 242,
  "<0xEB>": 243,
  "<0xEC>": 244,
  "<0xED>": 245,
  "<0xEE>": 246,
  "<0xEF>": 247,
  "<0xF0>": 248,
  "<0xF1>": 249,
  "<0xF2>": 250,
  "<0xF3>": 251,
  "<0xF4>": 252,
  "<0xF5>": 253,
  "<0xF6>": 254,
  "<0xF7>": 255,
  "<0xF8>": 256,
  "<0xF9>": 257,
  "<0xFA>": 258,
  "<0xFB>": 259,
  "<0xFC>": 260,
  "<0xFD>": 261,
  "<0xFE>": 262,
  "<0xFF>": 263,
  "er": 264,
  "en": 265,
  "▁s": 266,
  "in": 267,
  "▁a": 268,
  "▁t": 269,
  "et": 270,
  "ar": 271,
  "▁o": 272,
  "▁f": 273,
  "▁d": 274,
  "an": 275,
  "▁m": 276,
  "or": 277,
  "▁h": 278,
  "st": 279,
  "▁b": 280,
  "el": 281,
  "on": 282,
  "ed": 283,
  "▁p": 284,
  "at": 285,
  "il": 286,
  "▁v": 287,
  "▁i": 288,
  "om": 289,
  "re": 290,
  "ing": 291,
  "▁th": 292,
  "al": 293,
  "▁k": 294,
  "ig": 295,
  "tt": 296,
  "es": 297,
  "▁l": 298,
  "is": 299,
  "nd": 300,
  "▁n": 301,
  "▁in": 302,
  "▁g": 303,
  "ch": 304,
  "it": 305,
  "▁the": 306,
  "ag": 307,
  "ra": 308,
  "de": 309,
  "▁w": 310,
  "▁u": 311,
  ".\\": 312,
  "le": 313,
  "as": 314,
  "▁en": 315,
  "är": 316,
  "▁c": 317,
  "ör": 318,
  "ro": 319,
  "▁for": 320,
  "ion": 321,
  "sk": 322,
  "▁S": 323,
  "id": 324,
  "ur": 325,
  "▁til": 326,
  "am": 327,
  "te": 328,
  "▁det": 329,
  "▁og": 330,
  "ter": 331,
  "▁på": 332,
  "ol": 333,
  "ver": 334,
  "▁st": 335,
  "▁som": 336,
  "▁e": 337,
  "▁och": 338,
  "ent": 339,
  "ik": 340,
  "▁to": 341,
  "▁att": 342,
  "ad": 343,
  "ic": 344,
  "▁j": 345,
  "▁of": 346,
  "▁D": 347,
  "▁and": 348,
  "ou": 349,
  "▁med": 350,
  "pp": 351,
  "ll": 352,
  "▁r": 353,
  "▁I": 354,
  "iv": 355,
  "em": 356,
  "and": 357,
  "▁er": 358,
  "\\'": 359,
  "ot": 360,
  "un": 361,
  "▁av": 362,
  "▁sk": 363,
  "▁för": 364,
  "se": 365,
  "ck": 366,
  "ning": 367,
  "▁A": 368,
  "▁T": 369,
  "▁re": 370,
  "▁M": 371,
  "▁de": 372,
  "år": 373,
  "ut": 374,
  "lig": 375,
  "kt": 376,
  "▁är": 377,
  "eg": 378,
  "▁H": 379,
  "ir": 380,
  "▁-": 381,
  "ell": 382,
  "▁(": 383,
  "▁an": 384,
  "▁har": 385,
  "▁at": 386,
  "na": 387,
  "▁be": 388,
  "ke": 389,
  "▁B": 390,
  "ct": 391,
  "ne": 392,
  "ul": 393,
  "▁om": 394,
  "▁den": 395,
  "▁var": 396,
  "▁F": 397,
  "▁[": 398,
  "ri": 399,
  "ng": 400,
  "um": 401,
  "▁E": 402,
  "ere": 403,
  "od": 404,
  "ss": 405,
  "ill": 406,
  "im": 407,
  "▁et": 408,
  "▁C": 409,
  "▁P": 410,
  "ation": 411,
  "ist": 412,
  "av": 413,
  "▁N": 414,
  "▁till": 415,
  "▁L": 416,
  "est": 417,
  "us": 418,
  "ly": 419,
  "▁y": 420,
  "omm": 421,
  "ru": 422,
  "▁\"": 423,
  "▁kan": 424,
  "ers": 425,
  "▁så": 426,
  "ow": 427,
  "▁is": 428,
  "▁ut": 429,
  "▁fr": 430,
  "']": 431,
  "▁['": 432,
  "he": 433,
  "ort": 434,
  "▁V": 435,
  "▁du": 436,
  "ak": 437,
  "ce": 438,
  "ens": 439,
  "ør": 440,
  "▁man": 441,
  "▁=": 442,
  "▁K": 443,
  "og": 444,
  "der": 445,
  "▁R": 446,
  "▁pro": 447,
  "än": 448,
  "ta": 449,
  "▁G": 450,
  "▁J": 451,
  "ay": 452,
  "▁af": 453,
  "▁bl": 454,
  "▁inte": 455,
  "▁sp": 456,
  "ld": 457,
  "art": 458,
  "ok": 459,
  "▁vi": 460,
  "if": 461,
  "▁å": 462,
  "▁jag": 463,
  "are": 464,
  "all": 465,
  "ab": 466,
  "▁O": 467,
  "ge": 468,
  "for": 469,
  "ess": 470,
  "ap": 471,
  "ven": 472,
  "ade": 473,
  "▁wh": 474,
  "▁on": 475,
  "ud": 476,
  "▁men": 477,
  "▁all": 478,
  "▁sam": 479,
  "sp": 480,
  "eller": 481,
  "op": 482,
  "isk": 483,
  "th": 484,
  "ger": 485,
  ":\\": 486,
  "ith": 487,
  "ser": 488,
  "ast": 489,
  "▁that": 490,
  "itt": 491,
  "▁fra": 492,
  "und": 493,
  "▁al": 494,
  "▁it": 495,
  "os": 496,
  "▁se": 497,
  "het": 498,
  ";\\": 499,
  "▁W": 500,
  "ätt": 501,
  "ant": 502,
  "ær": 503,
  "ans": 504,
  "kke": 505,
  "▁tr": 506,
  "▁or": 507,
  ")\\": 508,
  "▁Det": 509,
  "ns": 510,
  "ov": 511,
  "▁ar": 512,
  "var": 513,
  "..": 514,
  "▁with": 515,
  "äl": 516,
  "ene": 517,
  "nS": 518,
  "ord": 519,
  "▁\\": 520,
  "▁der": 521,
  "ker": 522,
  "▁eller": 523,
  "▁komm": 524,
  "nder": 525,
  "ate": 526,
  "nD": 527,
  "je": 528,
  "ind": 529,
  "åg": 530,
  "ett": 531,
  "▁må": 532,
  "end": 533,
  "ende": 534,
  "?\\": 535,
  "ang": 536,
  "att": 537,
  "▁ikke": 538,
  "▁ex": 539,
  "ust": 540,
  "▁ett": 541,
  "ks": 542,
  "ber": 543,
  "▁you": 544,
  "▁was": 545,
  "▁by": 546,
  "ost": 547,
  "our": 548,
  "ass": 549,
  "ft": 550,
  "gg": 551,
  "ff": 552,
  "la": 553,
  "▁hel": 554,
  "ska": 555,
  ".']": 556,
  "ie": 557,
  "▁vil": 558,
  "▁U": 559,
  "▁con": 560,
  "qu": 561,
  "ande": 562,
  "be": 563,
  "ive": 564,
  "▁he": 565,
  "▁sig": 566,
  "ine": 567,
  "sl": 568,
  "igh": 569,
  "nT": 570,
  "ave": 571,
  "ån": 572,
  "▁->": 573,
  "igt": 574,
  "▁my": 575,
  "ste": 576,
  "så": 577,
  "▁as": 578,
  "▁hv": 579,
  "pe": 580,
  "ve": 581,
  "▁bar": 582,
  "else": 583,
  "ma": 584,
  "ry": 585,
  "pl": 586,
  ",\\": 587,
  "nt": 588,
  "ob": 589,
  "per": 590,
  "fter": 591,
  "▁min": 592,
  "▁this": 593,
  "pt": 594,
  "▁fin": 595,
  "▁ne": 596,
  "▁pr": 597,
  "yr": 598,
  "▁upp": 599,
  "▁pl": 600,
  "▁han": 601,
  "ub": 602,
  "--": 603,
  "ial": 604,
  "res": 605,
  "▁ch": 606,
  "ack": 607,
  "nA": 608,
  "▁kl": 609,
  "▁St": 610,
  "ction": 611,
  "▁le": 612,
  "ite": 613,
  "▁ö": 614,
  "mer": 615,
  "▁over": 616,
  "▁kon": 617,
  "gen": 618,
  "▁The": 619,
  "▁{": 620,
  "▁under": 621,
  "▁sl": 622,
  "ier": 623,
  "els": 624,
  "age": 625,
  "ult": 626,
  "\\\\": 627,
  "▁år": 628,
  "▁ver": 629,
  "▁ha": 630,
  "ner": 631,
  "äll": 632,
  "▁are": 633,
  "oc": 634,
  "▁ny": 635,
  "ligt": 636,
  "ler": 637,
  "för": 638,
  "▁\\'": 639,
  "ick": 640,
  "ish": 641,
  "elf": 642,
  "nI": 643,
  "▁not": 644,
  "ring": 645,
  "ore": 646,
  "ikt": 647,
  "old": 648,
  "ark": 649,
  "▁+": 650,
  "nH": 651,
  "jon": 652,
  "▁sh": 653,
  "ug": 654,
  "ling": 655,
  "▁have": 656,
  "▁do": 657,
  "▁from": 658,
  "ity": 659,
  "ia": 660,
  "ske": 661,
  "ard": 662,
  "änd": 663,
  "▁þ": 664,
  "ould": 665,
  "vis": 666,
  "ets": 667,
  ".\"": 668,
  "▁me": 669,
  "▁sy": 670,
  ");\\": 671,
  "lem": 672,
  "ige": 673,
  "nM": 674,
  "▁gj": 675,
  "▁tid": 676,
  "ip": 677,
  "▁if": 678,
  "▁få": 679,
  "eng": 680,
  "nE": 681,
  "äm": 682,
  "ele": 683,
  "▁te": 684,
  "ies": 685,
  "ater": 686,
  "▁bet": 687,
  "ts": 688,
  "▁jeg": 689,
  "sta": 690,
  "▁we": 691,
  "▁ty": 692,
  "den": 693,
  "one": 694,
  "▁del": 695,
  "omp": 696,
  "▁dag": 697,
  "▁.": 698,
  "ame": 699,
  "du": 700,
  "▁någ": 701,
  "ka": 702,
  "▁su": 703,
  "▁från": 704,
  "out": 705,
  "del": 706,
  "▁ab": 707,
  "jer": 708,
  "me": 709,
  "rå": 710,
  "ann": 711,
  "ede": 712,
  "ild": 713,
  "▁efter": 714,
  "val": 715,
  "▁lik": 716,
  "▁her": 717,
  "ire": 718,
  "▁sin": 719,
  "▁kr": 720,
  "kk": 721,
  "ingen": 722,
  "bet": 723,
  "▁In": 724,
  "▁ser": 725,
  "▁gen": 726,
  "▁sj": 727,
  "form": 728,
  "ull": 729,
  "▁að": 730,
  ").": 731,
  "ib": 732,
  "erson": 733,
  "**": 734,
  "ight": 735,
  "ress": 736,
  "get": 737,
  "kl": 738,
  "▁im": 739,
  "▁lä": 740,
  "▁ska": 741,
  "▁go": 742,
  "net": 743,
  "▁fl": 744,
  "▁beh": 745,
  "▁ro": 746,
  "nF": 747,
  "▁op": 748,
  "▁opp": 749,
  "xt": 750,
  "▁{\\": 751,
  "ide": 752,
  "tal": 753,
  "▁Th": 754,
  "▁mer": 755,
  "▁kommer": 756,
  "▁can": 757,
  "▁ma": 758,
  "▁när": 759,
  "tid": 760,
  "▁no": 761,
  "ram": 762,
  "▁kun": 763,
  "dag": 764,
  "▁int": 765,
  "▁ind": 766,
  "▁inn": 767,
  "ings": 768,
  "iver": 769,
  "▁sm": 770,
  "ære": 771,
  "iss": 772,
  "inn": 773,
  "▁ved": 774,
  "ue": 775,
  "dd": 776,
  "▁skal": 777,
  "ath": 778,
  "▁ble": 779,
  "ningen": 780,
  "ice": 781,
  "▁–": 782,
  "ats": 783,
  "ga": 784,
  "ock": 785,
  "ång": 786,
  "ien": 787,
  "ec": 788,
  "ket": 789,
  "land": 790,
  "▁but": 791,
  "▁fun": 792,
  "▁,": 793,
  "akt": 794,
  "▁mot": 795,
  "men": 796,
  "▁*": 797,
  "nN": 798,
  "▁gr": 799,
  "red": 800,
  "▁á": 801,
  "fer": 802,
  "▁får": 803,
  "iz": 804,
  "itet": 805,
  "▁had": 806,
  "ars": 807,
  "ment": 808,
  "ions": 809,
  "▁}": 810,
  "▁ud": 811,
  "//": 812,
  "ook": 813,
  "▁hj": 814,
  "▁reg": 815,
  "ac": 816,
  "ure": 817,
  "▁vara": 818,
  "▁inter": 819,
  "ich": 820,
  "▁nu": 821,
  "opp": 822,
  "int": 823,
  "nV": 824,
  "eld": 825,
  "...": 826,
  "up": 827,
  "ong": 828,
  "▁mig": 829,
  "ret": 830,
  "rem": 831,
  "▁ret": 832,
  "nB": 833,
  "▁$": 834,
  "ja": 835,
  "▁dig": 836,
  "nJ": 837,
  "ken": 838,
  "▁->\\": 839,
  "!\\": 840,
  "urn": 841,
  "▁ä": 842,
  "org": 843,
  "ata": 844,
  "▁par": 845,
  "▁ra": 846,
  "ian": 847,
  "ated": 848,
  "▁res": 849,
  "ið": 850,
  "iser": 851,
  "▁per": 852,
  "▁ta": 853,
  "▁person": 854,
  "da": 855,
  "▁his": 856,
  "ys": 857,
  "ally": 858,
  "▁över": 859,
  "▁tim": 860,
  "elsk": 861,
  "ile": 862,
  "nad": 863,
  "▁your": 864,
  "▁där": 865,
  "▁din": 866,
  "▁sä": 867,
  "▁sa": 868,
  "ulle": 869,
  "sm": 870,
  "▁også": 871,
  "▁í": 872,
  "port": 873,
  "▁då": 874,
  "▁bru": 875,
  "ach": 876,
  "pro": 877,
  "nes": 878,
  "ster": 879,
  "riv": 880,
  "▁god": 881,
  "▁De": 882,
  "arna": 883,
  "▁so": 884,
  "▁fram": 885,
  "ansk": 886,
  "ont": 887,
  "▁ø": 888,
  "▁bes": 889,
  "by": 890,
  "▁hur": 891,
  "nDet": 892,
  "nP": 893,
  "eder": 894,
  "elig": 895,
  "venska": 896,
  "▁ans": 897,
  "cl": 898,
  "),": 899,
  "▁vid": 900,
  "▁blir": 901,
  "stem": 902,
  "▁stor": 903,
  "▁us": 904,
  "▁hand": 905,
  "elt": 906,
  "oll": 907,
  "▁dem": 908,
  "enter": 909,
  "▁Eng": 910,
  "lik": 911,
  "ork": 912,
  "▁val": 913,
  "▁Vi": 914,
  "▁un": 915,
  "ors": 916,
  "▁out": 917,
  "▁fe": 918,
  "öra": 919,
  "ase": 920,
  "▁dis": 921,
  "▁Men": 922,
  "▁være": 923,
  "▁sv": 924,
  "▁skulle": 925,
  "▁här": 926,
  "amp": 927,
  "ins": 928,
  "▁cl": 929,
  "vent": 930,
  "▁ju": 931,
  "▁ann": 932,
  "nL": 933,
  "▁mod": 934,
  "cc": 935,
  "▁Y": 936,
  "▁self": 937,
  "åll": 938,
  "▁kn": 939,
  "iske": 940,
  "▁hon": 941,
  "▁vill": 942,
  "able": 943,
  "kar": 944,
  "ous": 945,
  "▁Jag": 946,
  "ose": 947,
  "ale": 948,
  "▁før": 949,
  "----": 950,
  "nK": 951,
  "▁Ch": 952,
  "\"\\": 953,
  "jen": 954,
  "▁they": 955,
  "par": 956,
  "▁one": 957,
  "min": 958,
  "▁:": 959,
  "▁vis": 960,
  "au": 961,
  "▁bra": 962,
  "▁up": 963,
  "åt": 964,
  "ition": 965,
  "sh": 966,
  "▁end": 967,
  "yn": 968,
  "tter": 969,
  "øl": 970,
  "con": 971,
  "▁mu": 972,
  "io": 973,
  "lige": 974,
  "ther": 975,
  "▁vä": 976,
  "her": 977,
  "man": 978,
  "▁ad": 979,
  "ran": 980,
  "liga": 981,
  "▁eng": 982,
  "ink": 983,
  "▁bara": 984,
  "▁just": 985,
  "cket": 986,
  "skap": 987,
  "▁alla": 988,
  "▁bil": 989,
  "▁has": 990,
  "so": 991,
  "▁kv": 992,
  "▁produ": 993,
  "det": 994,
  "iska": 995,
  "▁part": 996,
  "led": 997,
  "▁about": 998,
  "nThe": 999,
  "▁tra": 1000,
  "▁ve": 1001,
  "pr": 1002,
  "▁tv": 1003,
  "▁Den": 1004,
  "ty": 1005,
  "▁sen": 1006,
  "▁Wh": 1007,
  "▁app": 1008,
  "elv": 1009,
  "ome": 1010,
  "▁Nor": 1011,
  "ary": 1012,
  "nO": 1013,
  "▁like": 1014,
  "lish": 1015,
  "▁will": 1016,
  "▁pol": 1017,
  "edan": 1018,
  "▁fö": 1019,
  "▁kom": 1020,
  "▁barn": 1021,
  "▁gl": 1022,
  "▁were": 1023,
  "▁For": 1024,
  "ott": 1025,
  "▁finns": 1026,
  "alt": 1027,
  "ph": 1028,
  "ål": 1029,
  "str": 1030,
  "nings": 1031,
  "▁&": 1032,
  "▁nor": 1033,
  "▁br": 1034,
  "ert": 1035,
  "▁nog": 1036,
  "▁seg": 1037,
  "▁form": 1038,
  "▁str": 1039,
  "▁går": 1040,
  "asjon": 1041,
  "rev": 1042,
  "ents": 1043,
  "vel": 1044,
  "▁än": 1045,
  "hold": 1046,
  "ER": 1047,
  "▁po": 1048,
  "▁|": 1049,
  "ek": 1050,
  "▁ock": 1051,
  "▁qu": 1052,
  "▁En": 1053,
  "▁beg": 1054,
  "▁any": 1055,
  "▁vad": 1056,
  "ode": 1057,
  "▁which": 1058,
  "ligen": 1059,
  "▁[\"": 1060,
  "▁lite": 1061,
  "pa": 1062,
  "ely": 1063,
  "▁comp": 1064,
  "▁land": 1065,
  "▁def": 1066,
  "ance": 1067,
  "▁would": 1068,
  "iter": 1069,
  "▁också": 1070,
  "unn": 1071,
  "ktiv": 1072,
  "▁off": 1073,
  "ations": 1074,
  "▁helt": 1075,
  "atur": 1076,
  "hed": 1077,
  "vers": 1078,
  "fl": 1079,
  "va": 1080,
  "▁mycket": 1081,
  "nR": 1082,
  "▁andra": 1083,
  "▁Sk": 1084,
  "self": 1085,
  "▁sid": 1086,
  "▁ber": 1087,
  "▁best": 1088,
  "ningar": 1089,
  "ym": 1090,
  "fr": 1091,
  "▁blev": 1092,
  "▁liv": 1093,
  "enn": 1094,
  "ence": 1095,
  "▁hvor": 1096,
  "ög": 1097,
  "ons": 1098,
  "erne": 1099,
  "▁there": 1100,
  "äng": 1101,
  "▁prob": 1102,
  "▁more": 1103,
  "own": 1104,
  "aren": 1105,
  "ighet": 1106,
  "ffe": 1107,
  "lag": 1108,
  "▁sc": 1109,
  "▁des": 1110,
  "ical": 1111,
  "▁bli": 1112,
  "gh": 1113,
  "▁job": 1114,
  "rag": 1115,
  "▁He": 1116,
  "ject": 1117,
  "▁vet": 1118,
  "▁gå": 1119,
  "olog": 1120,
  "▁väl": 1121,
  "▁dette": 1122,
  "ød": 1123,
  "að": 1124,
  "▁Al": 1125,
  "rist": 1126,
  "ep": 1127,
  "ount": 1128,
  "som": 1129,
  "▁vår": 1130,
  "ef": 1131,
  "▁alle": 1132,
  "nn": 1133,
  "rig": 1134,
  "▁mat": 1135,
  "▁return": 1136,
  "▁lag": 1137,
  "▁their": 1138,
  "tem": 1139,
  "ex": 1140,
  "öj": 1141,
  "▁get": 1142,
  "▁tre": 1143,
  "▁lig": 1144,
  "▁Ar": 1145,
  "ikk": 1146,
  "ök": 1147,
  "▁denne": 1148,
  "▁gru": 1149,
  "nC": 1150,
  "ativ": 1151,
  "▁vär": 1152,
  "era": 1153,
  "sen": 1154,
  "\\',": 1155,
  "▁hade": 1156,
  "olk": 1157,
  "▁bå": 1158,
  "▁bör": 1159,
  "vid": 1160,
  "iet": 1161,
  "▁who": 1162,
  "▁#": 1163,
  "▁time": 1164,
  "bar": 1165,
  "▁rätt": 1166,
  "▁some": 1167,
  "bl": 1168,
  "▁sem": 1169,
  "▁sn": 1170,
  "øre": 1171,
  "▁pe": 1172,
  "▁kommun": 1173,
  "erna": 1174,
  "▁new": 1175,
  "ering": 1176,
  "▁/": 1177,
  "▁själ": 1178,
  "▁und": 1179,
  "over": 1180,
  "▁allt": 1181,
  "med": 1182,
  "we": 1183,
  "app": 1184,
  "ren": 1185,
  "elska": 1186,
  "▁met": 1187,
  "elsen": 1188,
  "\",": 1189,
  "ese": 1190,
  "utt": 1191,
  "yl": 1192,
  "kn": 1193,
  "set": 1194,
  "ina": 1195,
  "▁other": 1196,
  "▁gra": 1197,
  "▁am": 1198,
  "ille": 1199,
  "af": 1200,
  "oh": 1201,
  "amil": 1202,
  "rik": 1203,
  "ator": 1204,
  "ps": 1205,
  "▁when": 1206,
  "ister": 1207,
  "▁även": 1208,
  "vik": 1209,
  "stå": 1210,
  "uk": 1211,
  "▁bed": 1212,
  "ough": 1213,
  "ound": 1214,
  "irst": 1215,
  "com": 1216,
  "▁detta": 1217,
  "ise": 1218,
  "▁fil": 1219,
  "ond": 1220,
  "▁utan": 1221,
  "▁kän": 1222,
  "nG": 1223,
  "▁arbe": 1224,
  "▁pre": 1225,
  "▁ly": 1226,
  "▁da": 1227,
  "gt": 1228,
  "ree": 1229,
  "▁fa": 1230,
  "▁oss": 1231,
  "ign": 1232,
  "▁stud": 1233,
  "▁svar": 1234,
  "ordan": 1235,
  "ew": 1236,
  "(\\'": 1237,
  "ays": 1238,
  "elser": 1239,
  "øy": 1240,
  "▁been": 1241,
  "):\\": 1242,
  "▁samt": 1243,
  "▁anv": 1244,
  "amm": 1245,
  "lighet": 1246,
  "cker": 1247,
  "▁what": 1248,
  "▁hen": 1249,
  "▁arbet": 1250,
  "▁vær": 1251,
  "ange": 1252,
  "▁It": 1253,
  "▁ob": 1254,
  "==": 1255,
  "▁them": 1256,
  "▁function": 1257,
  "sa": 1258,
  "ninger": 1259,
  "nga": 1260,
  "▁andre": 1261,
  "▁meg": 1262,
  "ställ": 1263,
  "lic": 1264,
  "ah": 1265,
  "ove": 1266,
  "æl": 1267,
  "uro": 1268,
  "▁\\\\": 1269,
  "▁tro": 1270,
  "sten": 1271,
  "bru": 1272,
  "met": 1273,
  "ement": 1274,
  "▁ass": 1275,
  "ugh": 1276,
  "▁she": 1277,
  "ember": 1278,
  "rar": 1279,
  "▁him": 1280,
  "▁cont": 1281,
  "ix": 1282,
  "row": 1283,
  "▁göra": 1284,
  "bb": 1285,
  "▁mell": 1286,
  "▁el": 1287,
  "▁hem": 1288,
  "▁}\\": 1289,
  "iga": 1290,
  "gram": 1291,
  "of": 1292,
  "cer": 1293,
  "▁mil": 1294,
  "▁kont": 1295,
  "▁vir": 1296,
  "hand": 1297,
  "ood": 1298,
  "tte": 1299,
  "ear": 1300,
  "▁dess": 1301,
  "▁red": 1302,
  "ict": 1303,
  "▁sitt": 1304,
  "iskt": 1305,
  "ppen": 1306,
  "▁etter": 1307,
  "▁spec": 1308,
  "▁gör": 1309,
  "öd": 1310,
  "sv": 1311,
  "▁fly": 1312,
  "ten": 1313,
  "jø": 1314,
  "▁selv": 1315,
  "▁ing": 1316,
  "fa": 1317,
  "river": 1318,
  "▁något": 1319,
  "▁<": 1320,
  "▁frem": 1321,
  "ces": 1322,
  "▁inv": 1323,
  "▁någon": 1324,
  "fe": 1325,
  "▁also": 1326,
  "▁result": 1327,
  "▁test": 1328,
  "ager": 1329,
  "kon": 1330,
  "mar": 1331,
  "▁både": 1332,
  "▁Du": 1333,
  "ror": 1334,
  "▁når": 1335,
  "▁forsk": 1336,
  "kter": 1337,
  "▁em": 1338,
  "lar": 1339,
  "▁inform": 1340,
  "ala": 1341,
  "▁how": 1342,
  "▁sak": 1343,
  "gr": 1344,
  "▁ord": 1345,
  "▁dire": 1346,
  "▁An": 1347,
  "iew": 1348,
  "bo": 1349,
  "}\\": 1350,
  "▁genom": 1351,
  "nW": 1352,
  "▁kund": 1353,
  "▁than": 1354,
  "utom": 1355,
  "▁into": 1356,
  "▁work": 1357,
  "tern": 1358,
  "åd": 1359,
  "cent": 1360,
  "▁vikt": 1361,
  "▁plan": 1362,
  "▁led": 1363,
  "▁rel": 1364,
  "▁inne": 1365,
  "▁id": 1366,
  "▁set": 1367,
  "ider": 1368,
  "▁hav": 1369,
  "elle": 1370,
  "▁nä": 1371,
  "▁mark": 1372,
  "IN": 1373,
  "▁problem": 1374,
  "▁far": 1375,
  "als": 1376,
  "cept": 1377,
  "▁dom": 1378,
  "uss": 1379,
  "cess": 1380,
  "▁hos": 1381,
  "ktion": 1382,
  "▁gre": 1383,
  "...\\": 1384,
  "▁try": 1385,
  "▁comm": 1386,
  "komm": 1387,
  "▁tw": 1388,
  "ask": 1389,
  "ople": 1390,
  "hol": 1391,
  "▁själv": 1392,
  "▁art": 1393,
  "▁know": 1394,
  "▁Re": 1395,
  "▁ele": 1396,
  "pel": 1397,
  "line": 1398,
  "istor": 1399,
  "gif": 1400,
  "rat": 1401,
  "EN": 1402,
  "▁mind": 1403,
  "▁fast": 1404,
  "▁inst": 1405,
  "sy": 1406,
  "slag": 1407,
  "▁And": 1408,
  "▁hot": 1409,
  "▁Jeg": 1410,
  "▁bor": 1411,
  "▁mange": 1412,
  "rib": 1413,
  "rum": 1414,
  "iner": 1415,
  "rit": 1416,
  "ific": 1417,
  "▁start": 1418,
  "▁För": 1419,
  "▁lø": 1420,
  "▁tar": 1421,
  "änn": 1422,
  "▁'": 1423,
  "yd": 1424,
  "▁Pro": 1425,
  "▁ingen": 1426,
  "▁bo": 1427,
  "__": 1428,
  "▁\"\"": 1429,
  "▁first": 1430,
  "ank": 1431,
  "æt": 1432,
  "▁förs": 1433,
  "=\"": 1434,
  "▁bec": 1435,
  "roll": 1436,
  "ald": 1437,
  "öm": 1438,
  "før": 1439,
  "les": 1440,
  ").\\": 1441,
  "ester": 1442,
  "▁ever": 1443,
  "▁um": 1444,
  "ipp": 1445,
  "▁la": 1446,
  "▁famil": 1447,
  "▁only": 1448,
  "nsk": 1449,
  "tr": 1450,
  "▁said": 1451,
  "▁stat": 1452,
  "▁polit": 1453,
  "▁ter": 1454,
  "reg": 1455,
  "gs": 1456,
  "▁behö": 1457,
  "inger": 1458,
  "▁Han": 1459,
  "()": 1460,
  "▁com": 1461,
  "aste": 1462,
  "gan": 1463,
  "rue": 1464,
  "▁eg": 1465,
  "▁många": 1466,
  "ient": 1467,
  "▁fakt": 1468,
  "▁Mar": 1469,
  "let": 1470,
  "▁Un": 1471,
  "inst": 1472,
  "▁did": 1473,
  "vice": 1474,
  "▁gener": 1475,
  "▁enk": 1476,
  "lä": 1477,
  "▁sätt": 1478,
  "▁Dan": 1479,
  "▁kö": 1480,
  "▁”": 1481,
  "itu": 1482,
  "hing": 1483,
  "▁@": 1484,
  "▁ned": 1485,
  "▁mest": 1486,
  "ause": 1487,
  "▁want": 1488,
  "▁pa": 1489,
  "ious": 1490,
  ".\"\\": 1491,
  "▁pass": 1492,
  "atter": 1493,
  "nas": 1494,
  "nar": 1495,
  "▁bu": 1496,
  "▁ni": 1497,
  "▁fler": 1498,
  "ctor": 1499,
  "wer": 1500,
  "ail": 1501,
  "ument": 1502,
  "ced": 1503,
  "ole": 1504,
  "://": 1505,
  "▁vå": 1506,
  "▁back": 1507,
  "ool": 1508,
  "▁fort": 1509,
  "▁lang": 1510,
  "▁its": 1511,
  "cted": 1512,
  "vär": 1513,
  "▁leg": 1514,
  "▁spel": 1515,
  "▁could": 1516,
  "▁full": 1517,
  "▁hver": 1518,
  "▁people": 1519,
  "ied": 1520,
  "▁then": 1521,
  "▁need": 1522,
  "▁igen": 1523,
  "(\"": 1524,
  "ju": 1525,
  "lika": 1526,
  "▁pres": 1527,
  "▁acc": 1528,
  "ilt": 1529,
  "▁data": 1530,
  "▁använd": 1531,
  "▁Sver": 1532,
  "name": 1533,
  "St": 1534,
  "▁resp": 1535,
  "▁bas": 1536,
  "▁“": 1537,
  "▁use": 1538,
  "\"]": 1539,
  "sson": 1540,
  "tag": 1541,
  "▁gång": 1542,
  "ating": 1543,
  "atch": 1544,
  "▁säger": 1545,
  "ella": 1546,
  "håll": 1547,
  "nEng": 1548,
  "▁kra": 1549,
  "▁fall": 1550,
  "▁tror": 1551,
  "dom": 1552,
  "▁bel": 1553,
  "kst": 1554,
  "▁ke": 1555,
  "lo": 1556,
  "far": 1557,
  "br": 1558,
  "nen": 1559,
  "▁pos": 1560,
  "ates": 1561,
  "its": 1562,
  "▁Har": 1563,
  "▁dr": 1564,
  "--------": 1565,
  "olle": 1566,
  "jö": 1567,
  "istr": 1568,
  "eter": 1569,
  "▁tal": 1570,
  "▁olika": 1571,
  "ative": 1572,
  "sc": 1573,
  ".\"]": 1574,
  "▁føl": 1575,
  "upp": 1576,
  "este": 1577,
  "erg": 1578,
  "\":": 1579,
  "▁rec": 1580,
  "ms": 1581,
  "veck": 1582,
  "▁sedan": 1583,
  "▁kunne": 1584,
  "▁denna": 1585,
  "gang": 1586,
  "▁ald": 1587,
  "▁run": 1588,
  "▁sub": 1589,
  "mark": 1590,
  "▁ur": 1591,
  "▁look": 1592,
  "ime": 1593,
  "▁Se": 1594,
  "arbe": 1595,
  "▁wor": 1596,
  "AR": 1597,
  "raf": 1598,
  "▁fråg": 1599,
  "▁num": 1600,
  "kv": 1601,
  "atte": 1602,
  "▁ph": 1603,
  "asser": 1604,
  "▁All": 1605,
  "nU": 1606,
  "▁tilb": 1607,
  "ual": 1608,
  "▁dif": 1609,
  "round": 1610,
  "▁«": 1611,
  "øj": 1612,
  "arl": 1613,
  "▁alt": 1614,
  "▁//": 1615,
  "▁gu": 1616,
  "mod": 1617,
  "ron": 1618,
  "▁dec": 1619,
  "oth": 1620,
  "fore": 1621,
  "rift": 1622,
  "▁Om": 1623,
  "▁effe": 1624,
  "▁van": 1625,
  "uter": 1626,
  "▁sol": 1627,
  "▁ext": 1628,
  "ocial": 1629,
  "▁system": 1630,
  "▁two": 1631,
  "##": 1632,
  "etag": 1633,
  "▁måste": 1634,
  "di": 1635,
  "hus": 1636,
  "▁don": 1637,
  "▁Sp": 1638,
  "ON": 1639,
  ",\"": 1640,
  "▁natur": 1641,
  "▁två": 1642,
  "▁Le": 1643,
  "▁inom": 1644,
  "ield": 1645,
  "▁nå": 1646,
  "▁grund": 1647,
  "etter": 1648,
  "oy": 1649,
  "ize": 1650,
  "kte": 1651,
  "▁This": 1652,
  "nJag": 1653,
  "▁pla": 1654,
  "ational": 1655,
  "æg": 1656,
  "nge": 1657,
  "▁bare": 1658,
  "▁tak": 1659,
  "▁Man": 1660,
  "jekt": 1661,
  "agt": 1662,
  "▁håll": 1663,
  "▁litt": 1664,
  "▁still": 1665,
  "▁fyr": 1666,
  "▁act": 1667,
  "▁What": 1668,
  "urr": 1669,
  "▁fle": 1670,
  "▁x": 1671,
  "▁after": 1672,
  "ateg": 1673,
  "▁Med": 1674,
  "sb": 1675,
  "amma": 1676,
  "view": 1677,
  "ST": 1678,
  "▁our": 1679,
  "▁við": 1680,
  "fun": 1681,
  "▁ligger": 1682,
  "OR": 1683,
  "▁fri": 1684,
  "lut": 1685,
  "ivers": 1686,
  "▁rep": 1687,
  "rough": 1688,
  "nu": 1689,
  "ined": 1690,
  "heten": 1691,
  "▁hun": 1692,
  "▁sø": 1693,
  "▁should": 1694,
  "▁list": 1695,
  "roup": 1696,
  "anske": 1697,
  "▁sik": 1698,
  "ades": 1699,
  "ution": 1700,
  "verk": 1701,
  "▁fick": 1702,
  "part": 1703,
  "rä": 1704,
  "▁besk": 1705,
  "▁flere": 1706,
  "jó": 1707,
  "legg": 1708,
  "▁godt": 1709,
  "▁hela": 1710,
  "ved": 1711,
  "▁add": 1712,
  "ublic": 1713,
  "▁skriver": 1714,
  "går": 1715,
  "▁mus": 1716,
  "▁bak": 1717,
  "▁börj": 1718,
  "▁ste": 1719,
  "▁Så": 1720,
  "▁hal": 1721,
  "▁varit": 1722,
  "▁mere": 1723,
  "▁folk": 1724,
  "▁mål": 1725,
  "▁organ": 1726,
  "▁svenska": 1727,
  "▁nær": 1728,
  "AT": 1729,
  "▁sammen": 1730,
  "▁lever": 1731,
  "ds": 1732,
  "▁==": 1733,
  "▁ge": 1734,
  "▁ant": 1735,
  "▁ca": 1736,
  "▁We": 1737,
  "▁hög": 1738,
  "oved": 1739,
  "▁Hot": 1740,
  "orn": 1741,
  "ytt": 1742,
  "▁hvordan": 1743,
  "stand": 1744,
  "empel": 1745,
  "▁fan": 1746,
  "▁exp": 1747,
  "▁slut": 1748,
  "]\\": 1749,
  "van": 1750,
  "▁information": 1751,
  "▁Ä": 1752,
  "▁möj": 1753,
  "▁trans": 1754,
  "▁opt": 1755,
  "▁where": 1756,
  "vær": 1757,
  "ral": 1758,
  "▁kanske": 1759,
  "ife": 1760,
  "ari": 1761,
  "▁hans": 1762,
  "put": 1763,
  "vensk": 1764,
  "urs": 1765,
  "▁hjäl": 1766,
  "▁rikt": 1767,
  "vet": 1768,
  "nTh": 1769,
  "▁does": 1770,
  "yll": 1771,
  "▁nye": 1772,
  ">\\": 1773,
  "stru": 1774,
  "▁%": 1775,
  "▁may": 1776,
  "▁bør": 1777,
  "cy": 1778,
  "ule": 1779,
  "sätt": 1780,
  "AN": 1781,
  "▁most": 1782,
  "▁jobb": 1783,
  "ader": 1784,
  "way": 1785,
  "▁call": 1786,
  "konom": 1787,
  "fatt": 1788,
  "▁make": 1789,
  "ower": 1790,
  "nIn": 1791,
  "ular": 1792,
  "ði": 1793,
  "spl": 1794,
  "rom": 1795,
  "fil": 1796,
  "ible": 1797,
  "▁Her": 1798,
  "▁tän": 1799,
  "yg": 1800,
  "øb": 1801,
  "▁Der": 1802,
  "▁sett": 1803,
  "▁sna": 1804,
  "▁supp": 1805,
  "des": 1806,
  "▁vin": 1807,
  "▁komp": 1808,
  "▁egen": 1809,
  "ift": 1810,
  "▁tag": 1811,
  "ino": 1812,
  "wn": 1813,
  "▁Svenska": 1814,
  "▁mellan": 1815,
  "▁områ": 1816,
  "ital": 1817,
  "ics": 1818,
  "▁Euro": 1819,
  "▁every": 1820,
  "äv": 1821,
  "▁meget": 1822,
  "▁tur": 1823,
  "▁forts": 1824,
  "ism": 1825,
  "to": 1826,
  "▁import": 1827,
  "▁bland": 1828,
  "▁program": 1829,
  "▁lö": 1830,
  "▁bort": 1831,
  "▁några": 1832,
  "▁hitt": 1833,
  "cka": 1834,
  "▁event": 1835,
  "unkt": 1836,
  "ung": 1837,
  "ray": 1838,
  "rakt": 1839,
  "▁stör": 1840,
  "._": 1841,
  "▁Sh": 1842,
  "ute": 1843,
  "ænd": 1844,
  "▁behand": 1845,
  "▁änd": 1846,
  "▁jo": 1847,
  "▁Sverige": 1848,
  "▁Å": 1849,
  "▁vel": 1850,
  "▁mindre": 1851,
  "▁verk": 1852,
  "read": 1853,
  "giv": 1854,
  "ttp": 1855,
  "add": 1856,
  "ears": 1857,
  "▁play": 1858,
  "▁way": 1859,
  "vä": 1860,
  "▁see": 1861,
  "▁think": 1862,
  "ern": 1863,
  "ationer": 1864,
  "▁Z": 1865,
  "▁cre": 1866,
  "▁kost": 1867,
  "▁mill": 1868,
  "▁kj": 1869,
  "▁mon": 1870,
  "ash": 1871,
  "orm": 1872,
  "takt": 1873,
  "▁ac": 1874,
  "▁histor": 1875,
  "▁even": 1876,
  "ara": 1877,
  "▁US": 1878,
  "▁requ": 1879,
  "▁vän": 1880,
  "▁You": 1881,
  "orter": 1882,
  "lj": 1883,
  "▁post": 1884,
  "ultur": 1885,
  "▁tycker": 1886,
  "oner": 1887,
  "▁första": 1888,
  "▁Be": 1889,
  "atten": 1890,
  "▁første": 1891,
  "nSvar": 1892,
  "ake": 1893,
  "▁find": 1894,
  "borg": 1895,
  "▁sim": 1896,
  "num": 1897,
  "ues": 1898,
  "▁fått": 1899,
  "dan": 1900,
  "In": 1901,
  "▁good": 1902,
  "cre": 1903,
  "ips": 1904,
  "text": 1905,
  "▁gang": 1906,
  "æk": 1907,
  "▁pri": 1908,
  "tain": 1909,
  "▁trä": 1910,
  "ful": 1911,
  "alen": 1912,
  "ET": 1913,
  "gru": 1914,
  "▁cor": 1915,
  "▁först": 1916,
  "▁mar": 1917,
  "fig": 1918,
  "▁hus": 1919,
  "▁answer": 1920,
  "▁else": 1921,
  "▁mid": 1922,
  "type": 1923,
  "▁Og": 1924,
  "▁bä": 1925,
  "▁differ": 1926,
  "▁hvis": 1927,
  "▁vilket": 1928,
  "ras": 1929,
  "▁gam": 1930,
  "alse": 1931,
  "▁_": 1932,
  "▁now": 1933,
  "▁because": 1934,
  "▁gjort": 1935,
  "▁text": 1936,
  "▁high": 1937,
  "AL": 1938,
  "vir": 1939,
  "▁enn": 1940,
  "▁stør": 1941,
  "\\':": 1942,
  "agen": 1943,
  "▁pris": 1944,
  "ollow": 1945,
  "▁lo": 1946,
  "▁store": 1947,
  "▁lu": 1948,
  "▁åt": 1949,
  "▁männ": 1950,
  "ward": 1951,
  "ris": 1952,
  "▁these": 1953,
  "▁behöver": 1954,
  "▁ville": 1955,
  "▁hele": 1956,
  "uth": 1957,
  "▁kort": 1958,
  "▁nya": 1959,
  "▁Bl": 1960,
  "berg": 1961,
  "▁disse": 1962,
  "▁ner": 1963,
  "▁aga": 1964,
  "▁pat": 1965,
  "ane": 1966,
  "øm": 1967,
  "ika": 1968,
  "▁sö": 1969,
  "▁kunna": 1970,
  "▁alltid": 1971,
  "gj": 1972,
  "ES": 1973,
  "esk": 1974,
  "illa": 1975,
  "▁stand": 1976,
  "arbet": 1977,
  "ace": 1978,
  "sn": 1979,
  "!!": 1980,
  "cts": 1981,
  "▁If": 1982,
  "ores": 1983,
  "ble": 1984,
  "▁dessa": 1985,
  "▁innan": 1986,
  "▁down": 1987,
  "▁lång": 1988,
  "lin": 1989,
  "▁lok": 1990,
  "wed": 1991,
  "ingar": 1992,
  "▁bygg": 1993,
  "▁—": 1994,
  "æs": 1995,
  "▁cons": 1996,
  "▁skol": 1997,
  "▁name": 1998,
  "▁\"\"\"": 1999,
  "aler": 2000,
  "gång": 2001,
  "▁På": 2002,
  "äk": 2003,
  "ype": 2004,
  "▁står": 2005,
  "{\\\\": 2006,
  "▁mor": 2007,
  "▁through": 2008,
  "jän": 2009,
  "kom": 2010,
  "fo": 2011,
  "▁Sam": 2012,
  "▁sur": 2013,
  "▁giv": 2014,
  "arch": 2015,
  "anska": 2016,
  "....": 2017,
  "▁tem": 2018,
  "ium": 2019,
  "sam": 2020,
  "ej": 2021,
  "▁ger": 2022,
  "▁styr": 2023,
  "rid": 2024,
  "▁well": 2025,
  "▁samma": 2026,
  "▁Ind": 2027,
  "▁skap": 2028,
  "ript": 2029,
  "orde": 2030,
  "▁deg": 2031,
  "▁annat": 2032,
  "aterial": 2033,
  "▁hadde": 2034,
  "ånd": 2035,
  "▁arbeid": 2036,
  "▁hu": 2037,
  "▁social": 2038,
  "▁same": 2039,
  "ited": 2040,
  "mel": 2041,
  "pen": 2042,
  "po": 2043,
  "øg": 2044,
  "arn": 2045,
  "▁mitt": 2046,
  "▁forb": 2047,
  "▁aldrig": 2048,
  "ads": 2049,
  "ween": 2050,
  "▁hjem": 2051,
  "bild": 2052,
  "orsk": 2053,
  "▁ung": 2054,
  "atis": 2055,
  "',": 2056,
  "ouse": 2057,
  "▁very": 2058,
  "nVi": 2059,
  "▁sina": 2060,
  "iten": 2061,
  "inu": 2062,
  "iden": 2063,
  "back": 2064,
  "▁utveck": 2065,
  "▁ag": 2066,
  "▁used": 2067,
  "▁sent": 2068,
  "▁gjenn": 2069,
  "ht": 2070,
  "nAn": 2071,
  "▁co": 2072,
  "▁Joh": 2073,
  "▁z": 2074,
  "kes": 2075,
  "under": 2076,
  "▁say": 2077,
  "ident": 2078,
  "vend": 2079,
  "(-": 2080,
  "▁bok": 2081,
  "eck": 2082,
  "▁akt": 2083,
  "▁incl": 2084,
  "ain": 2085,
  "▁pop": 2086,
  "▁though": 2087,
  "▁before": 2088,
  "▁vide": 2089,
  "ple": 2090,
  "▁nok": 2091,
  "ength": 2092,
  "aka": 2093,
  "ities": 2094,
  "▁Þ": 2095,
  "▁sist": 2096,
  "iod": 2097,
  "\"\"\\": 2098,
  "ory": 2099,
  "ioner": 2100,
  "gå": 2101,
  "ygg": 2102,
  "()\\": 2103,
  "▁deres": 2104,
  "▁dra": 2105,
  "anden": 2106,
  "▁lå": 2107,
  "ksom": 2108,
  "test": 2109,
  "▁English": 2110,
  "ynd": 2111,
  "sf": 2112,
  "▁cent": 2113,
  "ody": 2114,
  "æng": 2115,
  "▁tiden": 2116,
  "no": 2117,
  "),\\": 2118,
  "ér": 2119,
  "▁years": 2120,
  "ksam": 2121,
  "ður": 2122,
  "▁kval": 2123,
  "▁noe": 2124,
  "nDen": 2125,
  "▁class": 2126,
  "▁much": 2127,
  "oun": 2128,
  "▁með": 2129,
  "▁gjennom": 2130,
  "▁os": 2131,
  "still": 2132,
  "▁sex": 2133,
  "▁follow": 2134,
  "The": 2135,
  "▁New": 2136,
  "neng": 2137,
  "rån": 2138,
  "▁små": 2139,
  "nEn": 2140,
  "▁star": 2141,
  "▁show": 2142,
  "▁noen": 2143,
  "lägg": 2144,
  "orna": 2145,
  "▁sier": 2146,
  "▁bro": 2147,
  "yt": 2148,
  "heter": 2149,
  "▁between": 2150,
  "änder": 2151,
  "▁ins": 2152,
  "fra": 2153,
  "ldigt": 2154,
  "ures": 2155,
  "styr": 2156,
  "ility": 2157,
  "▁value": 2158,
  "▁medlem": 2159,
  "igare": 2160,
  "▁such": 2161,
  "▁kro": 2162,
  "äs": 2163,
  "tar": 2164,
  "▁ansvar": 2165,
  "▁Q": 2166,
  "ages": 2167,
  "▁online": 2168,
  "lev": 2169,
  "▁fem": 2170,
  "▁dist": 2171,
  "▁here": 2172,
  "onym": 2173,
  "▁>": 2174,
  "▁gäll": 2175,
  "▁idag": 2176,
  "ike": 2177,
  "▁hö": 2178,
  "▁intern": 2179,
  "kki": 2180,
  "ligere": 2181,
  "ræ": 2182,
  "▁sign": 2183,
  "▁siden": 2184,
  "ober": 2185,
  "▁Dette": 2186,
  "▁anal": 2187,
  "nem": 2188,
  "cis": 2189,
  "▁arbej": 2190,
  "▁X": 2191,
  "▁fyrir": 2192,
  "omen": 2193,
  "▁real": 2194,
  "tast": 2195,
  "▁Och": 2196,
  "▁samme": 2197,
  "▁loc": 2198,
  "ða": 2199,
  "gifter": 2200,
  "ever": 2201,
  "jud": 2202,
  "▁being": 2203,
  "▁Er": 2204,
  "uring": 2205,
  "ender": 2206,
  "▁människ": 2207,
  "/\\": 2208,
  "▁aktiv": 2209,
  "ättre": 2210,
  "other": 2211,
  "▁sch": 2212,
  "))": 2213,
  "▁somet": 2214,
  "yk": 2215,
  "▁priv": 2216,
  "▁nytt": 2217,
  "ogg": 2218,
  "▁mak": 2219,
  "az": 2220,
  "▁fors": 2221,
  "▁lov": 2222,
  "▁företag": 2223,
  "bygg": 2224,
  "▁hund": 2225,
  "▁ide": 2226,
  "▁parag": 2227,
  "▁car": 2228,
  "▁typ": 2229,
  "▁stort": 2230,
  "ellt": 2231,
  "yld": 2232,
  "▁Pl": 2233,
  "iller": 2234,
  "▁ham": 2235,
  "agn": 2236,
  "▁many": 2237,
  "anter": 2238,
  "▁jul": 2239,
  "▁stad": 2240,
  "ices": 2241,
  "data": 2242,
  "ather": 2243,
  "pper": 2244,
  "ener": 2245,
  "olit": 2246,
  "▁last": 2247,
  "off": 2248,
  "js": 2249,
  "ksjon": 2250,
  "▁posit": 2251,
  "IT": 2252,
  "▁side": 2253,
  "▁Engelsk": 2254,
  "ww": 2255,
  "▁made": 2256,
  "ax": 2257,
  "▁mulig": 2258,
  "uff": 2259,
  "▁miss": 2260,
  "ha": 2261,
  "elige": 2262,
  "▁Ex": 2263,
  "▁ditt": 2264,
  "rad": 2265,
  "▁bre": 2266,
  "rol": 2267,
  "ön": 2268,
  "ually": 2269,
  "hat": 2270,
  "lingen": 2271,
  "vin": 2272,
  "▁klar": 2273,
  "pos": 2274,
  "rett": 2275,
  "▁tills": 2276,
  "ils": 2277,
  "▁bättre": 2278,
  "årt": 2279,
  "▁quest": 2280,
  "▁sal": 2281,
  "ands": 2282,
  "▁type": 2283,
  "▁right": 2284,
  "ationen": 2285,
  "bol": 2286,
  "act": 2287,
  "▁char": 2288,
  "ason": 2289,
  "ED": 2290,
  "hod": 2291,
  "bud": 2292,
  "ni": 2293,
  "▁före": 2294,
  "ál": 2295,
  "www": 2296,
  "▁via": 2297,
  "ml": 2298,
  "▁di": 2299,
  "spro": 2300,
  "use": 2301,
  "ges": 2302,
  "ags": 2303,
  "▁nam": 2304,
  "();\\": 2305,
  "▁bid": 2306,
  "▁inde": 2307,
  "urrent": 2308,
  "▁väldigt": 2309,
  "▁cas": 2310,
  "ystem": 2311,
  "stad": 2312,
  "▁situ": 2313,
  "▁help": 2314,
  "ete": 2315,
  "iker": 2316,
  "▁oper": 2317,
  "▁ekki": 2318,
  "▁Or": 2319,
  "▁disk": 2320,
  "ID": 2321,
  "ionen": 2322,
  "):": 2323,
  "▁enkelt": 2324,
  "▁maj": 2325,
  "▁found": 2326,
  "▁säker": 2327,
  "fin": 2328,
  "▁kvinn": 2329,
  "▁count": 2330,
  "edet": 2331,
  "▁Ø": 2332,
  "ery": 2333,
  "▁viktig": 2334,
  ".,": 2335,
  "▁fj": 2336,
  "las": 2337,
  "▁lär": 2338,
  "▁hold": 2339,
  "▁eks": 2340,
  "sport": 2341,
  "\",\\": 2342,
  "ource": 2343,
  "nMen": 2344,
  "▁process": 2345,
  "▁gir": 2346,
  "nh": 2347,
  "anger": 2348,
  "▁skriv": 2349,
  "▁No": 2350,
  "▁ens": 2351,
  "▁nett": 2352,
  "EL": 2353,
  "itle": 2354,
  "this": 2355,
  "øn": 2356,
  "▁läng": 2357,
  "▁veg": 2358,
  "ford": 2359,
  "drag": 2360,
  "▁hvil": 2361,
  "▁let": 2362,
  "▁!": 2363,
  "▁citer": 2364,
  "▁But": 2365,
  "andet": 2366,
  "äck": 2367,
  "▁norm": 2368,
  "▁Dansk": 2369,
  "▁personer": 2370,
  "▁exper": 2371,
  "idt": 2372,
  "▁read": 2373,
  "fon": 2374,
  "▁Is": 2375,
  "▁dat": 2376,
  "▁það": 2377,
  "▁fer": 2378,
  "▁eftersom": 2379,
  "▁mass": 2380,
  "▁prof": 2381,
  "▁heller": 2382,
  "nader": 2383,
  "velop": 2384,
  "▁Som": 2385,
  "▁rett": 2386,
  "bets": 2387,
  "▁fot": 2388,
  "thing": 2389,
  "enger": 2390,
  "],": 2391,
  "▁gjorde": 2392,
  "anna": 2393,
  "▁pros": 2394,
  "anu": 2395,
  "▁kontakt": 2396,
  "uni": 2397,
  "day": 2398,
  "fri": 2399,
  "▁ønsk": 2400,
  "co": 2401,
  "▁Norsk": 2402,
  "alk": 2403,
  "▁really": 2404,
  "▁Ö": 2405,
  "▁long": 2406,
  "lys": 2407,
  "▁þess": 2408,
  "rt": 2409,
  "▁utt": 2410,
  "▁total": 2411,
  "▁mel": 2412,
  "▁Engelska": 2413,
  "Vi": 2414,
  "▁dock": 2415,
  "▁day": 2416,
  "▁Ut": 2417,
  "====": 2418,
  "▁rem": 2419,
  "▁El": 2420,
  "▁bliver": 2421,
  "▁How": 2422,
  "▁åter": 2423,
  "▁own": 2424,
  "abel": 2425,
  "▁Komm": 2426,
  "lement": 2427,
  "▁kunde": 2428,
  "▁energ": 2429,
  "ví": 2430,
  "▁Nord": 2431,
  "nSt": 2432,
  "▁byg": 2433,
  "ening": 2434,
  "▁tri": 2435,
  "rer": 2436,
  "▁tekn": 2437,
  "▁hol": 2438,
  "▁while": 2439,
  "\\',\\": 2440,
  "▁ent": 2441,
  "områ": 2442,
  "▁different": 2443,
  "▁citerar": 2444,
  "klar": 2445,
  "▁vært": 2446,
  "function": 2447,
  "▁using": 2448,
  "▁Con": 2449,
  "▁Reg": 2450,
  "ivid": 2451,
  "wedish": 2452,
  "ica": 2453,
  "holm": 2454,
  "stat": 2455,
  "inde": 2456,
  "any": 2457,
  "iken": 2458,
  "ense": 2459,
  "▁kap": 2460,
  "▁våra": 2461,
  "▁behov": 2462,
  "▁sjuk": 2463,
  "▁too": 2464,
  "▁Hv": 2465,
  "{\\": 2466,
  "user": 2467,
  "▁rund": 2468,
  "skol": 2469,
  "ana": 2470,
  "▁lar": 2471,
  "avn": 2472,
  "▁kall": 2473,
  "▁viss": 2474,
  "▁ställ": 2475,
  "smål": 2476,
  "▁siger": 2477,
  "▁match": 2478,
  "_{": 2479,
  "▁värld": 2480,
  "ines": 2481,
  "▁flera": 2482,
  "▁Låt": 2483,
  "tet": 2484,
  "▁)": 2485,
  "▁rele": 2486,
  "▁imp": 2487,
  "▁each": 2488,
  "▁ben": 2489,
  "▁take": 2490,
  "▁EU": 2491,
  "▁annan": 2492,
  "▁haft": 2493,
  "▁tilf": 2494,
  "▁svaret": 2495,
  "ross": 2496,
  "▁film": 2497,
  "▁those": 2498,
  "rop": 2499,
  "▁uten": 2500,
  "ref": 2501,
  "▁honom": 2502,
  "▁sty": 2503,
  "▁é": 2504,
  "tak": 2505,
  "▁hum": 2506,
  "indow": 2507,
  "▁hy": 2508,
  "entar": 2509,
  "▁unders": 2510,
  "▁peng": 2511,
  "vs": 2512,
  "▁varje": 2513,
  "AS": 2514,
  "▁ed": 2515,
  "IL": 2516,
  "▁col": 2517,
  "uld": 2518,
  "Overs": 2519,
  "▁vers": 2520,
  "uder": 2521,
  "▁spør": 2522,
  "raph": 2523,
  "ession": 2524,
  "ids": 2525,
  "ness": 2526,
  "▁bad": 2527,
  "▁forhold": 2528,
  "entlig": 2529,
  "atet": 2530,
  "\".": 2531,
  "ctions": 2532,
  "▁My": 2533,
  "▁book": 2534,
  "[\\'": 2535,
  "▁Vad": 2536,
  "▁dansk": 2537,
  "rans": 2538,
  "kning": 2539,
  "ller": 2540,
  "elen": 2541,
  "▁km": 2542,
  "rite": 2543,
  "leg": 2544,
  "▁Var": 2545,
  "ized": 2546,
  "ext": 2547,
  "▁norsk": 2548,
  "▁She": 2549,
  "▁noget": 2550,
  "▁samtid": 2551,
  "▁Norge": 2552,
  "▁komma": 2553,
  "ida": 2554,
  "▁kar": 2555,
  "sol": 2556,
  "raft": 2557,
  "fi": 2558,
  "▁fel": 2559,
  "▁Ad": 2560,
  "IS": 2561,
  "▁hopp": 2562,
  "ired": 2563,
  "▁life": 2564,
  "▁syn": 2565,
  "▁something": 2566,
  "▁Sc": 2567,
  "▁Min": 2568,
  "ream": 2569,
  "▁vores": 2570,
  "▁Ber": 2571,
  "▁lätt": 2572,
  "▁mennes": 2573,
  "une": 2574,
  "oms": 2575,
  "ased": 2576,
  "ård": 2577,
  "fall": 2578,
  "ubb": 2579,
  "▁mellom": 2580,
  "▁tidigare": 2581,
  "▁grunn": 2582,
  "▁sådan": 2583,
  "ract": 2584,
  "lex": 2585,
  "▁both": 2586,
  "ush": 2587,
  "vert": 2588,
  "▁rätta": 2589,
  "råk": 2590,
  "▁Amer": 2591,
  "▁Att": 2592,
  "▁give": 2593,
  "nDu": 2594,
  "inter": 2595,
  "▁world": 2596,
  "▁ek": 2597,
  "▁As": 2598,
  "OM": 2599,
  "▁deras": 2600,
  "▁råd": 2601,
  "▁slik": 2602,
  "▁group": 2603,
  "▁henne": 2604,
  "serv": 2605,
  "list": 2606,
  "vud": 2607,
  "sak": 2608,
  "bart": 2609,
  "ways": 2610,
  "▁Hotel": 2611,
  "▁ev": 2612,
  "▁direkt": 2613,
  "ös": 2614,
  "wh": 2615,
  "▁child": 2616,
  "▁skall": 2617,
  "ants": 2618,
  "uc": 2619,
  "▁stra": 2620,
  "▁gäller": 2621,
  "▁bek": 2622,
  "▁year": 2623,
  "Det": 2624,
  "▁number": 2625,
  "▁»": 2626,
  "▁ident": 2627,
  "cial": 2628,
  "ature": 2629,
  "orth": 2630,
  "▁true": 2631,
  "▁engelsk": 2632,
  "ience": 2633,
  "▁log": 2634,
  "▁ask": 2635,
  "▁around": 2636,
  "▁Gr": 2637,
  "igheter": 2638,
  "▁arg": 2639,
  "änt": 2640,
  "ugust": 2641,
  "alm": 2642,
  "aj": 2643,
  "stan": 2644,
  "▁skrev": 2645,
  "▁Fin": 2646,
  "▁public": 2647,
  ")/": 2648,
  "▁--": 2649,
  "▁havde": 2650,
  "ighed": 2651,
  "▁Per": 2652,
  "▁`": 2653,
  "▁going": 2654,
  "pril": 2655,
  "nFör": 2656,
  "▁fru": 2657,
  "▁Fl": 2658,
  "ita": 2659,
  "▁sym": 2660,
  "▁mob": 2661,
  "▁super": 2662,
  "▁redan": 2663,
  "▁Fran": 2664,
  "øk": 2665,
  "opt": 2666,
  "▁tan": 2667,
  "▁stora": 2668,
  "▁funger": 2669,
  "▁bol": 2670,
  "▁Cl": 2671,
  "ists": 2672,
  "▁won": 2673,
  "▁Ser": 2674,
  "ært": 2675,
  "▁veck": 2676,
  "▁bud": 2677,
  "tember": 2678,
  "inc": 2679,
  "▁Nu": 2680,
  "▁konk": 2681,
  "urder": 2682,
  "▁sikker": 2683,
  "▁människor": 2684,
  "▁material": 2685,
  "▁ig": 2686,
  "asse": 2687,
  "nDe": 2688,
  "▁fär": 2689,
  "ING": 2690,
  "\\']": 2691,
  "book": 2692,
  "pet": 2693,
  "nSvaret": 2694,
  "gende": 2695,
  "▁risk": 2696,
  "▁includ": 2697,
  "late": 2698,
  "▁great": 2699,
  "ope": 2700,
  "orer": 2701,
  "▁hotell": 2702,
  "▁?": 2703,
  "itter": 2704,
  "iteter": 2705,
  "▁derfor": 2706,
  "▁disc": 2707,
  "▁autom": 2708,
  "ect": 2709,
  "▁dit": 2710,
  "▁gratis": 2711,
  "cel": 2712,
  "▁rä": 2713,
  "▁design": 2714,
  "▁konst": 2715,
  "sett": 2716,
  "▁hef": 2717,
  "▁sagt": 2718,
  "▁stru": 2719,
  "ape": 2720,
  "▁ja": 2721,
  "äns": 2722,
  "▁ref": 2723,
  "▁At": 2724,
  "▁høy": 2725,
  "▁bästa": 2726,
  "äg": 2727,
  "))\\": 2728,
  "▁ein": 2729,
  "▁hvad": 2730,
  "▁säga": 2731,
  "▁mens": 2732,
  "▁web": 2733,
  "▁Sch": 2734,
  "bil": 2735,
  "▁exempel": 2736,
  "ned": 2737,
  "▁dagen": 2738,
  "date": 2739,
  "}}": 2740,
  "▁They": 2741,
  "ey": 2742,
  "</": 2743,
  "▁never": 2744,
  "▁tog": 2745,
  "▁Til": 2746,
  "ots": 2747,
  "▁erb": 2748,
  "▁dog": 2749,
  "▁place": 2750,
  "▁On": 2751,
  "▁mø": 2752,
  "▁neg": 2753,
  "▁riktigt": 2754,
  "lø": 2755,
  "▁service": 2756,
  "ansen": 2757,
  "ætt": 2758,
  "naden": 2759,
  "\\'\\": 2760,
  "ører": 2761,
  "▁Ste": 2762,
  "▁organis": 2763,
  "æld": 2764,
  "▁Ny": 2765,
  "ny": 2766,
  "▁bety": 2767,
  "ically": 2768,
  "oto": 2769,
  "▁försö": 2770,
  "▁nr": 2771,
  "qual": 2772,
  "▁nov": 2773,
  "cond": 2774,
  "▁liten": 2775,
  "▁period": 2776,
  "uck": 2777,
  "▁mye": 2778,
  "▁verkligen": 2779,
  "▁Stock": 2780,
  "▁läm": 2781,
  "full": 2782,
  "ivå": 2783,
  "inal": 2784,
  "▁því": 2785,
  "▁engelska": 2786,
  "▁inneb": 2787,
  "▁enligt": 2788,
  "fir": 2789,
  "▁without": 2790,
  "▁corre": 2791,
  "▁dy": 2792,
  "▁dep": 2793,
  "param": 2794,
  "▁Ph": 2795,
  "elses": 2796,
  "dig": 2797,
  "til": 2798,
  "Ch": 2799,
  "my": 2800,
  "æn": 2801,
  "itch": 2802,
  "ware": 2803,
  "ify": 2804,
  "Pro": 2805,
  "▁altern": 2806,
  "▁case": 2807,
  "▁Ant": 2808,
  "▁Bar": 2809,
  "▁cle": 2810,
  "▁Comm": 2811,
  "icle": 2812,
  "edag": 2813,
  "▁sine": 2814,
  "kan": 2815,
  "▁ú": 2816,
  "▁tele": 2817,
  "▁Res": 2818,
  "rätt": 2819,
  "arly": 2820,
  "ringer": 2821,
  "que": 2822,
  "▁kor": 2823,
  "ärna": 2824,
  "▁næ": 2825,
  "from": 2826,
  "▁inget": 2827,
  "You": 2828,
  "▁Christ": 2829,
  "▁must": 2830,
  "▁följ": 2831,
  "iness": 2832,
  "ban": 2833,
  "isen": 2834,
  "▁point": 2835,
  "▁känner": 2836,
  "▁beslut": 2837,
  "▁order": 2838,
  "ydd": 2839,
  "▁lika": 2840,
  "ote": 2841,
  "▁saker": 2842,
  "resent": 2843,
  "▁ändå": 2844,
  "ample": 2845,
  "jur": 2846,
  "▁ven": 2847,
  "▁§": 2848,
  "▁När": 2849,
  "▁psy": 2850,
  "bin": 2851,
  "▁feel": 2852,
  "▁kultur": 2853,
  "pass": 2854,
  "▁support": 2855,
  "▁poss": 2856,
  "post": 2857,
  "li": 2858,
  "ox": 2859,
  "ux": 2860,
  "band": 2861,
  "▁popul": 2862,
  "▁nød": 2863,
  "▁rum": 2864,
  "▁uden": 2865,
  "nFor": 2866,
  "▁kjø": 2867,
  "føl": 2868,
  "hop": 2869,
  "äst": 2870,
  "▁top": 2871,
  "▁interest": 2872,
  "▁develop": 2873,
  "heder": 2874,
  "▁mina": 2875,
  "▁net": 2876,
  "ends": 2877,
  "----------------": 2878,
  "▁ban": 2879,
  "▁invest": 2880,
  "atta": 2881,
  "len": 2882,
  "▁runt": 2883,
  "dit": 2884,
  "vil": 2885,
  "▁USA": 2886,
  "ords": 2887,
  "gre": 2888,
  "aw": 2889,
  "▁team": 2890,
  "Id": 2891,
  "▁Par": 2892,
  "like": 2893,
  "▁fordi": 2894,
  "RE": 2895,
  "▁dina": 2896,
  "handling": 2897,
  "▁So": 2898,
  "▁Br": 2899,
  "####": 2900,
  "ton": 2901,
  "▁head": 2902,
  "Name": 2903,
  "▁tillb": 2904,
  "öst": 2905,
  "slo": 2906,
  "nEngelsk": 2907,
  "▁three": 2908,
  "▁ting": 2909,
  "arbej": 2910,
  "start": 2911,
  "▁gick": 2912,
  "ican": 2913,
  "Låt": 2914,
  "avor": 2915,
  "arbeid": 2916,
  "▁deb": 2917,
  "råd": 2918,
  "vikling": 2919,
  "path": 2920,
  "onse": 2921,
  "▁compl": 2922,
  "class": 2923,
  "vern": 2924,
  "ette": 2925,
  "ammans": 2926,
  "▁fok": 2927,
  "▁IN": 2928,
  "son": 2929,
  "ments": 2930,
  "ntil": 2931,
  "log": 2932,
  "fär": 2933,
  "ensen": 2934,
  "▁spill": 2935,
  "▁ren": 2936,
  "▁line": 2937,
  "▁læ": 2938,
  "ily": 2939,
  "▁bedre": 2940,
  "enge": 2941,
  "▁komme": 2942,
  "▁artik": 2943,
  "jäl": 2944,
  "gar": 2945,
  "work": 2946,
  "sel": 2947,
  "cle": 2948,
  "▁svensk": 2949,
  "alth": 2950,
  "kket": 2951,
  "erad": 2952,
  "key": 2953,
  "▁tran": 2954,
  "AM": 2955,
  "▁bild": 2956,
  "ellige": 2957,
  "mp": 2958,
  "▁There": 2959,
  "nJeg": 2960,
  "ktur": 2961,
  "▁kraft": 2962,
  "Ar": 2963,
  "erede": 2964,
  "cript": 2965,
  ".”": 2966,
  "eb": 2967,
  "bland": 2968,
  "▁snabb": 2969,
  "▁halv": 2970,
  "icka": 2971,
  "skab": 2972,
  "▁Ing": 2973,
  "▁nem": 2974,
  "▁stø": 2975,
  "▁arbets": 2976,
  "▁bill": 2977,
  "weg": 2978,
  "▁pot": 2979,
  "▁bestem": 2980,
  "▁möjlighet": 2981,
  "sdag": 2982,
  "▁file": 2983,
  "▁seem": 2984,
  "ött": 2985,
  "ada": 2986,
  "ric": 2987,
  "▁Ty": 2988,
  "Re": 2989,
  "▁cap": 2990,
  "▁jäm": 2991,
  "▁prote": 2992,
  "▁sing": 2993,
  "▁kvar": 2994,
  "rip": 2995,
  "▁klart": 2996,
  "▁gode": 2997,
  "▁hoved": 2998,
  "ension": 2999,
  "▁bus": 3000,
  "iger": 3001,
  "faren": 3002,
  "▁kontroll": 3003,
  "talet": 3004,
  "ters": 3005,
  "▁gar": 3006,
  "▁got": 3007,
  "ves": 3008,
  "▁ute": 3009,
  "Cl": 3010,
  "oman": 3011,
  "▁Hur": 3012,
  "▁open": 3013,
  "oder": 3014,
  "▁during": 3015,
  "inner": 3016,
  "dition": 3017,
  "▁sær": 3018,
  "nSvenska": 3019,
  "nat": 3020,
  "uts": 3021,
  "▁betyd": 3022,
  "öp": 3023,
  "oo": 3024,
  "arm": 3025,
  "▁betal": 3026,
  "▁cour": 3027,
  "staur": 3028,
  "\\')\\": 3029,
  "play": 3030,
  "init": 3031,
  "▁Gu": 3032,
  "▁jord": 3033,
  "new": 3034,
  "▁þe": 3035,
  "▁lige": 3036,
  "▁individ": 3037,
  "▁ol": 3038,
  "produ": 3039,
  "rel": 3040,
  "▁intress": 3041,
  "ritt": 3042,
  "nade": 3043,
  "▁press": 3044,
  "▁tab": 3045,
  "wegian": 3046,
  "▁key": 3047,
  "▁helst": 3048,
  "▁extra": 3049,
  "the": 3050,
  "▁ønsker": 3051,
  "▁Av": 3052,
  "▁next": 3053,
  "▁berätt": 3054,
  "▁års": 3055,
  "▁fund": 3056,
  "aget": 3057,
  "ikker": 3058,
  "▁behandling": 3059,
  "▁&&": 3060,
  "▁veta": 3061,
  "▁plats": 3062,
  "aur": 3063,
  "Con": 3064,
  "iteten": 3065,
  "jar": 3066,
  "value": 3067,
  "▁omk": 3068,
  "▁might": 3069,
  "▁sum": 3070,
  "▁hjälp": 3071,
  "outh": 3072,
  "▁state": 3073,
  "ktor": 3074,
  "jør": 3075,
  "aks": 3076,
  "UL": 3077,
  "sted": 3078,
  "▁krav": 3079,
  "aster": 3080,
  "ai": 3081,
  "▁bry": 3082,
  "ategor": 3083,
  "ík": 3084,
  "aker": 3085,
  "▁Detta": 3086,
  "▁object": 3087,
  "Er": 3088,
  "▁Är": 3089,
  "dk": 3090,
  "▁Su": 3091,
  "Sk": 3092,
  "▁Univers": 3093,
  "unt": 3094,
  "▁expe": 3095,
  "OT": 3096,
  "▁small": 3097,
  "▁mis": 3098,
  "▁tidligere": 3099,
  "▁enda": 3100,
  "▁dej": 3101,
  "▁været": 3102,
  "▁dine": 3103,
  "ccess": 3104,
  "emb": 3105,
  "▁virk": 3106,
  "ump": 3107,
  "▁förstå": 3108,
  "▁another": 3109,
  "ppe": 3110,
  "▁refer": 3111,
  "▁spe": 3112,
  "▁mynd": 3113,
  "delser": 3114,
  "slut": 3115,
  "svar": 3116,
  "▁ten": 3117,
  "▁ofta": 3118,
  "▁rundt": 3119,
  "SE": 3120,
  "▁virksom": 3121,
  "▁høj": 3122,
  "▁review": 3123,
  "▁always": 3124,
  "ission": 3125,
  "▁mö": 3126,
  "nOm": 3127,
  "mär": 3128,
  "▁things": 3129,
  "▁gjøre": 3130,
  "▁cir": 3131,
  "ogle": 3132,
  "ttps": 3133,
  "lim": 3134,
  "▁förb": 3135,
  "▁tred": 3136,
  "ament": 3137,
  "ball": 3138,
  "ås": 3139,
  "▁tjän": 3140,
  "inder": 3141,
  "requ": 3142,
  "▁TV": 3143,
  "▁juni": 3144,
  "▁huvud": 3145,
  "▁pub": 3146,
  "plan": 3147,
  "aten": 3148,
  "▁mov": 3149,
  "dater": 3150,
  "vordan": 3151,
  "ira": 3152,
  "▁special": 3153,
  "▁fire": 3154,
  "▁init": 3155,
  "▁http": 3156,
  "▁following": 3157,
  "parte": 3158,
  "▁hva": 3159,
  "ledning": 3160,
  "▁little": 3161,
  "▁først": 3162,
  "▁ram": 3163,
  "stre": 3164,
  "▁Am": 3165,
  "ära": 3166,
  "udd": 3167,
  "▁större": 3168,
  "▁$\\\\": 3169,
  "▁against": 3170,
  "▁rapp": 3171,
  "▁left": 3172,
  "eln": 3173,
  "▁blive": 3174,
  "ential": 3175,
  "▁few": 3176,
  "kker": 3177,
  "atser": 3178,
  "▁better": 3179,
  "▁Under": 3180,
  "▁current": 3181,
  "▁Can": 3182,
  "tif": 3183,
  "kten": 3184,
  "▁insp": 3185,
  "Th": 3186,
  "joner": 3187,
  "math": 3188,
  "eret": 3189,
  "amb": 3190,
  "▁sw": 3191,
  "▁Europe": 3192,
  "unch": 3193,
  "äder": 3194,
  "olum": 3195,
  "essage": 3196,
  "▁produkter": 3197,
  "▁},\\": 3198,
  "▁hör": 3199,
  "▁bilder": 3200,
  "▁since": 3201,
  "▁bi": 3202,
  "▁perfe": 3203,
  "▁restaur": 3204,
  "idler": 3205,
  "▁prov": 3206,
  "▁home": 3207,
  "▁tillbaka": 3208,
  "▁faktiskt": 3209,
  "▁livet": 3210,
  "▁God": 3211,
  "▁klass": 3212,
  "▁gennem": 3213,
  "file": 3214,
  "▁viser": 3215,
  "utes": 3216,
  "▁vårt": 3217,
  "▁stå": 3218,
  "ctive": 3219,
  "▁port": 3220,
  "▁inkl": 3221,
  "assert": 3222,
  "▁didn": 3223,
  "▁send": 3224,
  "▁verksam": 3225,
  "▁*/\\": 3226,
  "▁paragraf": 3227,
  "▁bur": 3228,
  "IC": 3229,
  "hver": 3230,
  "▁orig": 3231,
  "erat": 3232,
  "▁sí": 3233,
  "?\"": 3234,
  "▁Vis": 3235,
  "▁main": 3236,
  "▁partic": 3237,
  "▁old": 3238,
  "An": 3239,
  "står": 3240,
  "..\\": 3241,
  "▁report": 3242,
  "▁kroner": 3243,
  "ior": 3244,
  "▁videre": 3245,
  "ames": 3246,
  "▁bliv": 3247,
  "▁second": 3248,
  "älj": 3249,
  "▁colle": 3250,
  "nSk": 3251,
  "rang": 3252,
  "▁fantast": 3253,
  "ligare": 3254,
  "skar": 3255,
  "oot": 3256,
  "▁est": 3257,
  "ärn": 3258,
  "▁Gre": 3259,
  "ustri": 3260,
  "▁free": 3261,
  "vr": 3262,
  "length": 3263,
  "stället": 3264,
  "versätt": 3265,
  "partement": 3266,
  "▁roll": 3267,
  "OL": 3268,
  "▁dagar": 3269,
  "▁tillsammans": 3270,
  "ault": 3271,
  "▁året": 3272,
  "▁vari": 3273,
  "▁gem": 3274,
  "ably": 3275,
  "▁snart": 3276,
  "▁samh": 3277,
  "▁None": 3278,
  "▁come": 3279,
  "illar": 3280,
  "ified": 3281,
  "▁air": 3282,
  "▁enkel": 3283,
  "ude": 3284,
  "IG": 3285,
  "▁precis": 3286,
  "ley": 3287,
  "▁gärna": 3288,
  "etting": 3289,
  "▁minst": 3290,
  "▁hard": 3291,
  "▁again": 3292,
  "ining": 3293,
  "▁hår": 3294,
  "▁sep": 3295,
  "▁alm": 3296,
  "sikt": 3297,
  "▁okt": 3298,
  "▁mult": 3299,
  "▁Ja": 3300,
  "bef": 3301,
  "▁gått": 3302,
  "▁method": 3303,
  "▁norske": 3304,
  "▁rad": 3305,
  "▁cell": 3306,
  "▁mag": 3307,
  "(\\": 3308,
  "▁skill": 3309,
  "▁Kan": 3310,
  "▁Kon": 3311,
  "▁därför": 3312,
  "øde": 3313,
  "▁Hol": 3314,
  "▁kamp": 3315,
  "EC": 3316,
  "▁svårt": 3317,
  "▁lidt": 3318,
  "vor": 3319,
  "fort": 3320,
  "andi": 3321,
  "esten": 3322,
  "▁proper": 3323,
  "elske": 3324,
  "▁care": 3325,
  "▁nogle": 3326,
  "▁Go": 3327,
  "nDansk": 3328,
  "▁Stockholm": 3329,
  "▁check": 3330,
  "▁mener": 3331,
  "▁barnet": 3332,
  "nAl": 3333,
  "ativt": 3334,
  "øres": 3335,
  "ression": 3336,
  "ham": 3337,
  "ona": 3338,
  "▁admin": 3339,
  "▁använda": 3340,
  "▁present": 3341,
  "ärt": 3342,
  "jör": 3343,
  "kor": 3344,
  "▁länge": 3345,
  "▁mean": 3346,
  "spunkt": 3347,
  "ól": 3348,
  "rodu": 3349,
  "ology": 3350,
  "▁const": 3351,
  "AC": 3352,
  "▁projekt": 3353,
  "kort": 3354,
  "▁english": 3355,
  "eldig": 3356,
  "hör": 3357,
  "bro": 3358,
  "oss": 3359,
  "less": 3360,
  "▁love": 3361,
  "▁ring": 3362,
  "äld": 3363,
  "▁Hon": 3364,
  "▁gjør": 3365,
  "▁janu": 3366,
  "▁mellem": 3367,
  "▁fol": 3368,
  "▁hann": 3369,
  "erade": 3370,
  "gga": 3371,
  "▁install": 3372,
  "erar": 3373,
  "▁positiv": 3374,
  "ogen": 3375,
  "äd": 3376,
  "▁flytt": 3377,
  "▁Hvis": 3378,
  "▁incre": 3379,
  "▁build": 3380,
  "▁Do": 3381,
  "▁inden": 3382,
  "nal": 3383,
  "▁personal": 3384,
  "mes": 3385,
  "▁Efter": 3386,
  "▁verkar": 3387,
  "orgon": 3388,
  "lad": 3389,
  "].": 3390,
  "▁||": 3391,
  "vänd": 3392,
  "ared": 3393,
  "gift": 3394,
  "▁längre": 3395,
  "▁sit": 3396,
  "ocument": 3397,
  "▁Ge": 3398,
  "▁utbild": 3399,
  "▁});\\": 3400,
  "▁dro": 3401,
  "▁landet": 3402,
  "▁vand": 3403,
  "▁känns": 3404,
  "ards": 3405,
  "stånd": 3406,
  "dis": 3407,
  "▁water": 3408,
  "sj": 3409,
  "och": 3410,
  "▁hemma": 3411,
  "farande": 3412,
  "▁hånd": 3413,
  "▁Sm": 3414,
  "elp": 3415,
  "▁bruk": 3416,
  "▁why": 3417,
  "▁away": 3418,
  "▁eru": 3419,
  "æm": 3420,
  "▁lot": 3421,
  "▁pengar": 3422,
  "▁view": 3423,
  "▁son": 3424,
  "▁correct": 3425,
  "ird": 3426,
  "nSå": 3427,
  "abil": 3428,
  "isering": 3429,
  "oid": 3430,
  "uthor": 3431,
  "▁häl": 3432,
  "tes": 3433,
  "▁big": 3434,
  "sning": 3435,
  "▁varför": 3436,
  "▁bit": 3437,
  "▁turn": 3438,
  "▁prø": 3439,
  "lever": 3440,
  "jem": 3441,
  "▁bef": 3442,
  "▁blivit": 3443,
  "▁Te": 3444,
  "ither": 3445,
  "▁Car": 3446,
  "▁thing": 3447,
  "ryck": 3448,
  "åga": 3449,
  "imes": 3450,
  "enser": 3451,
  "▁fokus": 3452,
  "▁elever": 3453,
  "▁fyl": 3454,
  "▁større": 3455,
  "▁Till": 3456,
  "utter": 3457,
  "▁tje": 3458,
  "▁That": 3459,
  "▁univers": 3460,
  "▁kons": 3461,
  "etta": 3462,
  "▁psyk": 3463,
  "ights": 3464,
  "▁absol": 3465,
  "anser": 3466,
  "tro": 3467,
  "▁month": 3468,
  "▁alltså": 3469,
  "▁;": 3470,
  "ora": 3471,
  "▁kör": 3472,
  "ekt": 3473,
  "▁called": 3474,
  "▁bred": 3475,
  "▁Danmark": 3476,
  "▁Krist": 3477,
  "▁fikk": 3478,
  "▁grad": 3479,
  "▁game": 3480,
  "AG": 3481,
  "▁sort": 3482,
  "▁resultat": 3483,
  "▁ang": 3484,
  "search": 3485,
  "▁kommentar": 3486,
  "▁finans": 3487,
  "esp": 3488,
  "mm": 3489,
  "rav": 3490,
  "ustom": 3491,
  "▁keep": 3492,
  "▁erfaren": 3493,
  "ait": 3494,
  "▁regler": 3495,
  "▁null": 3496,
  "▁prakt": 3497,
  "ät": 3498,
  "iber": 3499,
  "ee": 3500,
  "vn": 3501,
  "▁gi": 3502,
  "valg": 3503,
  "▁ekonom": 3504,
  "▁kna": 3505,
  "▁hjæl": 3506,
  "rin": 3507,
  "fly": 3508,
  "nHar": 3509,
  "▁until": 3510,
  "▁allow": 3511,
  "fs": 3512,
  "▁emot": 3513,
  "nIt": 3514,
  "▁week": 3515,
  "▁lin": 3516,
  "▁annet": 3517,
  "ivil": 3518,
  "▁ster": 3519,
  "yra": 3520,
  "▁vissa": 3521,
  "▁power": 3522,
  "oci": 3523,
  "andra": 3524,
  "bund": 3525,
  "▁köpa": 3526,
  "▁favor": 3527,
  "▁ganska": 3528,
  "load": 3529,
  "\\');\\": 3530,
  "ias": 3531,
  "▁cm": 3532,
  "?\"\\": 3533,
  "ION": 3534,
  "AD": 3535,
  "▁school": 3536,
  "▁put": 3537,
  "aut": 3538,
  "idth": 3539,
  "ready": 3540,
  "▁sure": 3541,
  "▁langt": 3542,
  "▁region": 3543,
  "ført": 3544,
  "Ex": 3545,
  "fte": 3546,
  "▁väg": 3547,
  "aljer": 3548,
  "▁stopp": 3549,
  "rep": 3550,
  "▁eas": 3551,
  "▁assist": 3552,
  "▁Sen": 3553,
  "▁gravid": 3554,
  "ifier": 3555,
  "▁Inn": 3556,
  "▁driv": 3557,
  "▁lav": 3558,
  "▁tell": 3559,
  "sty": 3560,
  "änk": 3561,
  "UT": 3562,
  "cont": 3563,
  "lek": 3564,
  "oney": 3565,
  "▁thought": 3566,
  "▁nord": 3567,
  "▁gott": 3568,
  "▁istället": 3569,
  "aps": 3570,
  "▁titt": 3571,
  "ization": 3572,
  "nAnonym": 3573,
  "▁product": 3574,
  "nNorsk": 3575,
  "▁kø": 3576,
  "▁produkt": 3577,
  "****": 3578,
  "obb": 3579,
  "▁Vil": 3580,
  "▁økonom": 3581,
  "▁belie": 3582,
  "dagen": 3583,
  "▁borde": 3584,
  "▁ka": 3585,
  "▁öpp": 3586,
  "▁user": 3587,
  "ärsk": 3588,
  "▁mennesker": 3589,
  "▁lyck": 3590,
  "▁leder": 3591,
  "Översätt": 3592,
  "▁less": 3593,
  "ately": 3594,
  "▁bestäm": 3595,
  "sg": 3596,
  "▁omkring": 3597,
  "▁priser": 3598,
  "▁Inter": 3599,
  "▁nødvend": 3600,
  "▁paa": 3601,
  "▁näm": 3602,
  "▁To": 3603,
  "}$": 3604,
  "▁===": 3605,
  "lt": 3606,
  "▁later": 3607,
  "▁strateg": 3608,
  "▁bon": 3609,
  "▁dyr": 3610,
  "rade": 3611,
  "▁casino": 3612,
  "▁igjen": 3613,
  "eks": 3614,
  "▁...": 3615,
  "föra": 3616,
  "▁kul": 3617,
  "▁false": 3618,
  "▁fag": 3619,
  "▁lim": 3620,
  "UR": 3621,
  "▁april": 3622,
  "▁sag": 3623,
  "▁visar": 3624,
  "▁field": 3625,
  "▁Dis": 3626,
  "ærer": 3627,
  "▁fact": 3628,
  "atan": 3629,
  "bok": 3630,
  ".\"\"\"\\": 3631,
  "▁föl": 3632,
  "return": 3633,
  "▁frá": 3634,
  "▁bag": 3635,
  "▁män": 3636,
  "ivet": 3637,
  "ðu": 3638,
  "▁verden": 3639,
  "▁håller": 3640,
  "▁dok": 3641,
  "▁registr": 3642,
  "enh": 3643,
  "▁etc": 3644,
  "▁effektiv": 3645,
  "▁Val": 3646,
  "▁procent": 3647,
  "▁tyd": 3648,
  "▁stöd": 3649,
  "▁App": 3650,
  "imal": 3651,
  "▁within": 3652,
  "▁tru": 3653,
  "▁Fr": 3654,
  "▁fortfarande": 3655,
  "▁offic": 3656,
  "▁vist": 3657,
  "▁conta": 3658,
  "osp": 3659,
  "▁menar": 3660,
  "mann": 3661,
  "▁code": 3662,
  "▁Gud": 3663,
  "▁ej": 3664,
  "▁inc": 3665,
  "nRe": 3666,
  "▁change": 3667,
  "▁provid": 3668,
  "lands": 3669,
  "urch": 3670,
  "▁When": 3671,
  "vant": 3672,
  "▁ey": 3673,
  "▁Då": 3674,
  "▁september": 3675,
  "heden": 3676,
  "ndag": 3677,
  "ints": 3678,
  "▁Kl": 3679,
  "▁non": 3680,
  "▁tekst": 3681,
  "elskap": 3682,
  "ologi": 3683,
  "Error": 3684,
  "▁kvinnor": 3685,
  "▁hennes": 3686,
  "▁Här": 3687,
  "meldelser": 3688,
  "▁mik": 3689,
  "▁væ": 3690,
  "▁Let": 3691,
  "▁vilken": 3692,
  "delig": 3693,
  "akter": 3694,
  "▁ment": 3695,
  "ledes": 3696,
  "▁given": 3697,
  "▁innebär": 3698,
  "▁near": 3699,
  "▁hefur": 3700,
  "▁verd": 3701,
  "▁börjar": 3702,
  "▁hitta": 3703,
  "sst": 3704,
  "ena": 3705,
  "▁jätt": 3706,
  "▁ofte": 3707,
  "▁Da": 3708,
  "▁fråga": 3709,
  "iel": 3710,
  "▁ytter": 3711,
  "▁\"\"\"\\": 3712,
  "ander": 3713,
  "▁chang": 3714,
  "▁spes": 3715,
  "▁prom": 3716,
  "bu": 3717,
  "ception": 3718,
  "▁kind": 3719,
  "igtig": 3720,
  "▁Í": 3721,
  "▁Ol": 3722,
  "▁lev": 3723,
  "tering": 3724,
  "**\\": 3725,
  "holder": 3726,
  "▁vurder": 3727,
  "▁mars": 3728,
  "klart": 3729,
  "organ": 3730,
  "ians": 3731,
  "▁slä": 3732,
  "▁papp": 3733,
  "▁position": 3734,
  "▁fys": 3735,
  "nThis": 3736,
  "tiden": 3737,
  "▁ak": 3738,
  "▁eget": 3739,
  "\\')": 3740,
  "▁dere": 3741,
  "▁iss": 3742,
  "edel": 3743,
  "▁vidare": 3744,
  "▁skj": 3745,
  "ående": 3746,
  "];\\": 3747,
  "▁represent": 3748,
  "▁version": 3749,
  "side": 3750,
  "▁sele": 3751,
  "▁max": 3752,
  "▁perform": 3753,
  "▁kre": 3754,
  "chn": 3755,
  "▁family": 3756,
  "▁tack": 3757,
  "▁kvalitet": 3758,
  "itets": 3759,
  "allet": 3760,
  "▁fisk": 3761,
  "▁handlar": 3762,
  "eds": 3763,
  "▁charac": 3764,
  "urg": 3765,
  "ogn": 3766,
  "byg": 3767,
  "▁äl": 3768,
  "▁sec": 3769,
  "▁skö": 3770,
  "▁eksempel": 3771,
  "▁kompet": 3772,
  "▁glad": 3773,
  "visning": 3774,
  "▁möjligt": 3775,
  "▁serv": 3776,
  "mon": 3777,
  "▁siste": 3778,
  "olen": 3779,
  "▁questions": 3780,
  "▁fortsätt": 3781,
  "▁relig": 3782,
  "mail": 3783,
  "▁Best": 3784,
  "▁brug": 3785,
  "nEngelska": 3786,
  "▁rå": 3787,
  "▁ple": 3788,
  "▁model": 3789,
  "▁body": 3790,
  "mil": 3791,
  "rs": 3792,
  "osed": 3793,
  "light": 3794,
  "OD": 3795,
  "IM": 3796,
  "▁ekst": 3797,
  "Val": 3798,
  "LE": 3799,
  "abet": 3800,
  "▁blod": 3801,
  "▁appro": 3802,
  "▁Fred": 3803,
  "▁gør": 3804,
  "ries": 3805,
  "jo": 3806,
  "ending": 3807,
  "partementet": 3808,
  "ikken": 3809,
  "▁mom": 3810,
  "▁tjen": 3811,
  "▁danske": 3812,
  "▁arbete": 3813,
  "kont": 3814,
  "Trans": 3815,
  "gl": 3816,
  "ðar": 3817,
  "▁mand": 3818,
  "import": 3819,
  "▁kol": 3820,
  "ci": 3821,
  "▁tips": 3822,
  "\")": 3823,
  "US": 3824,
  "▁området": 3825,
  "AP": 3826,
  "iam": 3827,
  "air": 3828,
  "rimin": 3829,
  "indelse": 3830,
  "▁kunskap": 3831,
  "▁relation": 3832,
  "▁happen": 3833,
  "▁största": 3834,
  "▁rece": 3835,
  "lace": 3836,
  "▁fig": 3837,
  "▁video": 3838,
  "▁sever": 3839,
  "Jeg": 3840,
  "▁alls": 3841,
  "▁rest": 3842,
  "▁oktober": 3843,
  "▁standard": 3844,
  "icense": 3845,
  "nHe": 3846,
  "▁es": 3847,
  "irk": 3848,
  "url": 3849,
  "kost": 3850,
  "▁satt": 3851,
  "▁war": 3852,
  "kr": 3853,
  "▁example": 3854,
  "anse": 3855,
  "orld": 3856,
  ")*": 3857,
  "▁path": 3858,
  "▁sov": 3859,
  "ours": 3860,
  "ommer": 3861,
  "icro": 3862,
  "▁sted": 3863,
  "▁giver": 3864,
  "▁Just": 3865,
  "ournal": 3866,
  "sättning": 3867,
  "ftir": 3868,
  "▁Når": 3869,
  "▁själva": 3870,
  "▁May": 3871,
  "nfrom": 3872,
  "▁live": 3873,
  "▁anything": 3874,
  "List": 3875,
  "bum": 3876,
  "▁eff": 3877,
  "▁känd": 3878,
  "▁træ": 3879,
  "▁innehåll": 3880,
  "▁Oslo": 3881,
  "▁Jul": 3882,
  "nande": 3883,
  "▁Ett": 3884,
  "▁fac": 3885,
  "på": 3886,
  "▁förl": 3887,
  "▁skr": 3888,
  "▁gøre": 3889,
  "▁require": 3890,
  "▁Dess": 3891,
  "▁pers": 3892,
  "^{": 3893,
  "▁analys": 3894,
  "▁days": 3895,
  "▁fjer": 3896,
  "▁november": 3897,
  "nPå": 3898,
  "meld": 3899,
  "▁Ver": 3900,
  "▁vilka": 3901,
  "▁vok": 3902,
  "box": 3903,
  "resse": 3904,
  "valt": 3905,
  "▁gamm": 3906,
  "grund": 3907,
  "▁ei": 3908,
  "uage": 3909,
  "anish": 3910,
  "▁doesn": 3911,
  "snitt": 3912,
  "field": 3913,
  "▁kron": 3914,
  "index": 3915,
  "=\\'": 3916,
  "nEnglish": 3917,
  "▁hurt": 3918,
  "bor": 3919,
  "\")\\": 3920,
  "▁anden": 3921,
  "ktioner": 3922,
  "plats": 3923,
  "▁kunder": 3924,
  "▁question": 3925,
  "ograf": 3926,
  "▁already": 3927,
  "ften": 3928,
  "ney": 3929,
  "▁blitt": 3930,
  "iment": 3931,
  "▁alternativ": 3932,
  "▁San": 3933,
  "▁vit": 3934,
  "oice": 3935,
  "ality": 3936,
  "elder": 3937,
  "▁Ved": 3938,
  "▁Sol": 3939,
  "('": 3940,
  "▁possible": 3941,
  "▁times": 3942,
  "nWh": 3943,
  "iled": 3944,
  "▁ég": 3945,
  "▁nästan": 3946,
  "Jag": 3947,
  "inna": 3948,
  "▁integr": 3949,
  "▁major": 3950,
  "hip": 3951,
  "▁träff": 3952,
  "▁väx": 3953,
  "nengelsk": 3954,
  "▁rör": 3955,
  "▁house": 3956,
  "▁euro": 3957,
  "▁four": 3958,
  "▁andet": 3959,
  "▁kring": 3960,
  "gör": 3961,
  "▁gånger": 3962,
  "▁Mer": 3963,
  "ilar": 3964,
  "▁valg": 3965,
  "æll": 3966,
  "ival": 3967,
  "una": 3968,
  "▁interv": 3969,
  "rim": 3970,
  "tot": 3971,
  "▁hålla": 3972,
  "▁ris": 3973,
  "enfor": 3974,
  "▁senaste": 3975,
  "▁tom": 3976,
  "ifrån": 3977,
  "▁spille": 3978,
  "▁commun": 3979,
  "cing": 3980,
  "▁server": 3981,
  "olf": 3982,
  "▁rö": 3983,
  "▁Ger": 3984,
  "ements": 3985,
  "▁consider": 3986,
  "▁inför": 3987,
  "por": 3988,
  "▁Et": 3989,
  "▁medic": 3990,
  "amer": 3991,
  "▁activ": 3992,
  "ache": 3993,
  "▁ok": 3994,
  "▁vann": 3995,
  "▁done": 3996,
  "▁stem": 3997,
  "▁prim": 3998,
  "▁omfatt": 3999,
  "lan": 4000,
  "▁synes": 4001,
  "▁Me": 4002,
  "za": 4003,
  "▁important": 4004,
  "▁AB": 4005,
  "▁lead": 4006,
  "▁project": 4007,
  "▁law": 4008,
  "▁glob": 4009,
  "Qu": 4010,
  "lega": 4011,
  "▁verið": 4012,
  "▁august": 4013,
  "cul": 4014,
  "eligt": 4015,
  "▁kolle": 4016,
  "læg": 4017,
  "OS": 4018,
  "hets": 4019,
  "▁kväll": 4020,
  "lack": 4021,
  "ienter": 4022,
  "used": 4023,
  "▁använder": 4024,
  "▁samtidigt": 4025,
  "▁ännu": 4026,
  "▁asp": 4027,
  "▁särsk": 4028,
  "▁Not": 4029,
  "nÄ": 4030,
  "vi": 4031,
  "aling": 4032,
  "▁cer": 4033,
  "Type": 4034,
  "bruk": 4035,
  "▁Ne": 4036,
  "eta": 4037,
  "▁hoppas": 4038,
  "Hvordan": 4039,
  "▁pay": 4040,
  "uten": 4041,
  "▁Tr": 4042,
  "▁light": 4043,
  "ended": 4044,
  "ised": 4045,
  "▁vatten": 4046,
  "▁rek": 4047,
  "▁þar": 4048,
  "▁occ": 4049,
  "We": 4050,
  "nAnd": 4051,
  "thers": 4052,
  "▁enough": 4053,
  "▁febru": 4054,
  "▁egent": 4055,
  "▁Ro": 4056,
  "utton": 4057,
  "askin": 4058,
  "!']": 4059,
  "Hot": 4060,
  "▁telefon": 4061,
  "▁lille": 4062,
  "div": 4063,
  "-\\": 4064,
  "▁tredje": 4065,
  "lysninger": 4066,
  "▁sitter": 4067,
  "ben": 4068,
  "▁United": 4069,
  "time": 4070,
  "▁forskellige": 4071,
  "pack": 4072,
  "sid": 4073,
  "▁allerede": 4074,
  "juder": 4075,
  "ury": 4076,
  "▁vecka": 4077,
  "▁tillegg": 4078,
  "▁control": 4079,
  "▁talk": 4080,
  "itor": 4081,
  "*\\": 4082,
  "lder": 4083,
  "▁viktigt": 4084,
  "▁ses": 4085,
  "▁inlägg": 4086,
  "AB": 4087,
  "▁si": 4088,
  "▁·": 4089,
  "Oversæt": 4090,
  "bject": 4091,
  "▁John": 4092,
  "ela": 4093,
  "▁face": 4094,
  "olution": 4095,
  "ording": 4096,
  "▁York": 4097,
  "▁föräld": 4098,
  "áð": 4099,
  "ether": 4100,
  "▁stats": 4101,
  "igen": 4102,
  "▁human": 4103,
  "▁frågor": 4104,
  "▁Hen": 4105,
  "▁tilbud": 4106,
  "comp": 4107,
  "æð": 4108,
  "▁general": 4109,
  "▁miljö": 4110,
  "▁kill": 4111,
  "ients": 4112,
  "▁instit": 4113,
  "▁invol": 4114,
  "▁hvert": 4115,
  "▁låg": 4116,
  "ondon": 4117,
  "▁came": 4118,
  "▁kur": 4119,
  "▁blant": 4120,
  "mid": 4121,
  "▁conne": 4122,
  "▁Isl": 4123,
  "öte": 4124,
  "rund": 4125,
  "▁krit": 4126,
  "▁equ": 4127,
  "endt": 4128,
  "▁tek": 4129,
  "▁least": 4130,
  "kta": 4131,
  "▁told": 4132,
  "args": 4133,
  "vist": 4134,
  "▁kry": 4135,
  "nvar": 4136,
  "abler": 4137,
  "▁utveckling": 4138,
  "▁samman": 4139,
  "▁applic": 4140,
  "▁mär": 4141,
  "▁þá": 4142,
  "uden": 4143,
  "▁tj": 4144,
  "▁business": 4145,
  "▁godk": 4146,
  "▁nästa": 4147,
  "▁mm": 4148,
  "uch": 4149,
  "ales": 4150,
  "▁able": 4151,
  "▁veldig": 4152,
  "▁Tra": 4153,
  "arg": 4154,
  "ca": 4155,
  "asjonen": 4156,
  "▁egna": 4157,
  "ision": 4158,
  "▁lån": 4159,
  "ops": 4160,
  "öv": 4161,
  "▁rema": 4162,
  "\"\"\"\\": 4163,
  "▁held": 4164,
  "CH": 4165,
  "▁fyll": 4166,
  "▁fix": 4167,
  "kommen": 4168,
  "ived": 4169,
  "▁betyder": 4170,
  "▁lagt": 4171,
  "ifik": 4172,
  "?']": 4173,
  "▁q": 4174,
  "▁II": 4175,
  "tur": 4176,
  "▁offer": 4177,
  "▁took": 4178,
  "▁yr": 4179,
  "Data": 4180,
  "▁sker": 4181,
  "▁eventu": 4182,
  "▁tråd": 4183,
  "▁närm": 4184,
  "▁samhäll": 4185,
  "atal": 4186,
  "ried": 4187,
  "ones": 4188,
  "string": 4189,
  "▁forskning": 4190,
  "▁known": 4191,
  "▁föränd": 4192,
  "UN": 4193,
  "▁create": 4194,
  "▁brukar": 4195,
  "blad": 4196,
  "▁transport": 4197,
  "▁grow": 4198,
  "▁item": 4199,
  "▁including": 4200,
  "ekter": 4201,
  "gn": 4202,
  "olor": 4203,
  "▁osv": 4204,
  "mt": 4205,
  "▁area": 4206,
  "▁musik": 4207,
  "▁vanlig": 4208,
  "omb": 4209,
  "▁flesta": 4210,
  "▁amer": 4211,
  "▁past": 4212,
  "uf": 4213,
  "▁söker": 4214,
  "▁mamma": 4215,
  "▁children": 4216,
  "right": 4217,
  "▁juli": 4218,
  "▁ungdom": 4219,
  "▁bal": 4220,
  "▁break": 4221,
  "spel": 4222,
  "▁aut": 4223,
  "person": 4224,
  "▁having": 4225,
  "▁endast": 4226,
  "iff": 4227,
  "▁inga": 4228,
  "dde": 4229,
  "qrt": 4230,
  "▁women": 4231,
  "▁dest": 4232,
  "▁rik": 4233,
  "▁specific": 4234,
  "ploy": 4235,
  ".\\'": 4236,
  "▁study": 4237,
  "oret": 4238,
  "aring": 4239,
  "▁•": 4240,
  "▁speci": 4241,
  "bel": 4242,
  "ences": 4243,
  "▁följande": 4244,
  "iges": 4245,
  "▁print": 4246,
  "▁Jo": 4247,
  "▁ihop": 4248,
  "▁fre": 4249,
  "He": 4250,
  "▁American": 4251,
  "▁room": 4252,
  "▁single": 4253,
  "▁svært": 4254,
  "verket": 4255,
  "enskap": 4256,
  "förs": 4257,
  "▁University": 4258,
  "▁someone": 4259,
  "öt": 4260,
  "▁short": 4261,
  "▁level": 4262,
  "▁Sy": 4263,
  "▁sport": 4264,
  "nMed": 4265,
  "IF": 4266,
  "▁prior": 4267,
  "▁anmeldelser": 4268,
  "acebook": 4269,
  "▁sé": 4270,
  "ze": 4271,
  "▁fell": 4272,
  "▁Upp": 4273,
  "Den": 4274,
  "▁pap": 4275,
  "▁drift": 4276,
  "▁element": 4277,
  "ently": 4278,
  "▁fint": 4279,
  "▁infl": 4280,
  "▁va": 4281,
  "▁kil": 4282,
  "▁fleste": 4283,
  "▁govern": 4284,
  "stid": 4285,
  "▁princ": 4286,
  "TE": 4287,
  "sd": 4288,
  "▁senare": 4289,
  "▁tradition": 4290,
  "enden": 4291,
  "vand": 4292,
  "unk": 4293,
  "▁understand": 4294,
  "▁främ": 4295,
  "usk": 4296,
  "ming": 4297,
  "ega": 4298,
  "ting": 4299,
  "▁desc": 4300,
  "ula": 4301,
  "indows": 4302,
  "plic": 4303,
  "mat": 4304,
  "▁local": 4305,
  "▁Vid": 4306,
  "bara": 4307,
  "eres": 4308,
  "▁param": 4309,
  "▁fik": 4310,
  "▁rent": 4311,
  "▁mine": 4312,
  "▁eftir": 4313,
  "beh": 4314,
  "▁By": 4315,
  "arbete": 4316,
  "▁hafa": 4317,
  "??": 4318,
  "icy": 4319,
  "▁skad": 4320,
  "jonen": 4321,
  "▁barnen": 4322,
  "▁went": 4323,
  "lat": 4324,
  "To": 4325,
  "▁options": 4326,
  "▁regel": 4327,
  "▁div": 4328,
  "▁Läs": 4329,
  "føre": 4330,
  "▁night": 4331,
  "};\\": 4332,
  "▁ibland": 4333,
  "▁gjelder": 4334,
  "▁pan": 4335,
  "jus": 4336,
  "▁city": 4337,
  "▁kroppen": 4338,
  "▁__": 4339,
  "▁hvilket": 4340,
  "▁buy": 4341,
  "▁beste": 4342,
  "lade": 4343,
  "▁large": 4344,
  "▁Inst": 4345,
  "lund": 4346,
  "ellen": 4347,
  "tvar": 4348,
  "kken": 4349,
  "▁vind": 4350,
  "▁either": 4351,
  "yp": 4352,
  "nsvenska": 4353,
  "▁þeir": 4354,
  "▁skyld": 4355,
  "▁Bo": 4356,
  "edd": 4357,
  "lagt": 4358,
  "▁avail": 4359,
  "▁Pa": 4360,
  "▁Comp": 4361,
  "▁distrib": 4362,
  "asjoner": 4363,
  "äkna": 4364,
  "igheten": 4365,
  "▁Ann": 4366,
  "▁finde": 4367,
  "▁common": 4368,
  "RO": 4369,
  "blem": 4370,
  "▁hens": 4371,
  "▁redu": 4372,
  "umenter": 4373,
  "▁reger": 4374,
  "ått": 4375,
  "▁forbindelse": 4376,
  "▁watch": 4377,
  "run": 4378,
  "result": 4379,
  "ggest": 4380,
  "▁san": 4381,
  "▁exist": 4382,
  "========": 4383,
  "egn": 4384,
  "▁forslag": 4385,
  "ged": 4386,
  "nAll": 4387,
  "▁sek": 4388,
  "▁former": 4389,
  "▁milit": 4390,
  "eting": 4391,
  "▁ill": 4392,
  "mål": 4393,
  "▁nära": 4394,
  "över": 4395,
  "▁based": 4396,
  "▁mobil": 4397,
  "ún": 4398,
  "▁fest": 4399,
  "▁Bil": 4400,
  "ony": 4401,
  "jöl": 4402,
  "▁läsa": 4403,
  "▁automat": 4404,
  "▁Ab": 4405,
  "html": 4406,
  "splan": 4407,
  "▁Bru": 4408,
  "lu": 4409,
  "▁sil": 4410,
  "▁Pol": 4411,
  "face": 4412,
  "▁One": 4413,
  "nNu": 4414,
  "egar": 4415,
  "▁absolut": 4416,
  "▁Pr": 4417,
  "nm": 4418,
  "▁actually": 4419,
  "▁såg": 4420,
  "amin": 4421,
  "sub": 4422,
  "urer": 4423,
  "etty": 4424,
  "▁Qu": 4425,
  "fö": 4426,
  "▁.\\": 4427,
  "▁);\\": 4428,
  "heim": 4429,
  "▁che": 4430,
  "▁sat": 4431,
  "▁success": 4432,
  "▁private": 4433,
  "▁Air": 4434,
  "▁assert": 4435,
  "cks": 4436,
  "tera": 4437,
  "ograph": 4438,
  "▁date": 4439,
  "}\\\\": 4440,
  "▁situation": 4441,
  "▁bruker": 4442,
  "▁stre": 4443,
  "▁gemens": 4444,
  "▁børn": 4445,
  "▁request": 4446,
  "▁access": 4447,
  "nb": 4448,
  "cal": 4449,
  "isa": 4450,
  "▁stadig": 4451,
  "▁once": 4452,
  "▁country": 4453,
  "assen": 4454,
  "asino": 4455,
  "▁looking": 4456,
  "▁sound": 4457,
  "tek": 4458,
  "▁blevet": 4459,
  "revet": 4460,
  "aby": 4461,
  "▁elekt": 4462,
  "▁City": 4463,
  "opy": 4464,
  "▁anbef": 4465,
  "▁camp": 4466,
  "▁Gl": 4467,
  "▁Co": 4468,
  "code": 4469,
  "ls": 4470,
  "dir": 4471,
  "▁normal": 4472,
  "True": 4473,
  "▁privat": 4474,
  "▁Red": 4475,
  "▁förut": 4476,
  "dda": 4477,
  "▁La": 4478,
  "umm": 4479,
  "▁började": 4480,
  "tale": 4481,
  "sför": 4482,
  "▁wonder": 4483,
  "▁sér": 4484,
  "▁pack": 4485,
  "▁(-": 4486,
  "▁skapa": 4487,
  "▁doing": 4488,
  "▁working": 4489,
  "▁beskriv": 4490,
  "øver": 4491,
  "▁money": 4492,
  "väg": 4493,
  "▁ry": 4494,
  "stead": 4495,
  "lapp": 4496,
  "▁Mon": 4497,
  "▁Gener": 4498,
  "æring": 4499,
  "gør": 4500,
  "▁Will": 4501,
  "▁reason": 4502,
  "nimport": 4503,
  "▁food": 4504,
  "▁världen": 4505,
  "tra": 4506,
  "▁tilbake": 4507,
  "▁hit": 4508,
  "db": 4509,
  "▁write": 4510,
  "iety": 4511,
  "ura": 4512,
  "▁kal": 4513,
  "▁fatt": 4514,
  "▁miljø": 4515,
  "▁string": 4516,
  "▁along": 4517,
  "▁health": 4518,
  "▁AS": 4519,
  "Ad": 4520,
  "▁soft": 4521,
  "▁rom": 4522,
  "▁Swedish": 4523,
  "▁Europa": 4524,
  "onent": 4525,
  "Oversett": 4526,
  "nCh": 4527,
  "▁nogen": 4528,
  "ports": 4529,
  "▁Hun": 4530,
  "uð": 4531,
  "roid": 4532,
  "iva": 4533,
  "oen": 4534,
  "▁often": 4535,
  "gående": 4536,
  "revious": 4537,
  "▁Mil": 4538,
  "▁says": 4539,
  "▁offent": 4540,
  "forsk": 4541,
  "▁company": 4542,
  "object": 4543,
  "server": 4544,
  "▁erbjud": 4545,
  "▁egentligen": 4546,
  "vrig": 4547,
  "▁cook": 4548,
  "▁Fil": 4549,
  "ama": 4550,
  "▁webb": 4551,
  "itar": 4552,
  "▁prosent": 4553,
  "▁trå": 4554,
  "▁gamle": 4555,
  "ability": 4556,
  "▁course": 4557,
  "étt": 4558,
  "\".\\": 4559,
  "cture": 4560,
  "sch": 4561,
  "▁börja": 4562,
  "▁Em": 4563,
  "atar": 4564,
  "gon": 4565,
  "▁amerik": 4566,
  "▁tilbage": 4567,
  "tade": 4568,
  "▁långt": 4569,
  "▁interess": 4570,
  "▁Där": 4571,
  "orb": 4572,
  "▁cur": 4573,
  "omme": 4574,
  "viron": 4575,
  "oint": 4576,
  "▁results": 4577,
  "▁Sl": 4578,
  "▁internet": 4579,
  "▁**": 4580,
  "▁Art": 4581,
  "item": 4582,
  "▁cal": 4583,
  "oper": 4584,
  "ndef": 4585,
  "▁Del": 4586,
  "▁profession": 4587,
  "ev": 4588,
  "bas": 4589,
  "▁Ud": 4590,
  "▁Des": 4591,
  "▁koll": 4592,
  "nJa": 4593,
  "▁grupp": 4594,
  "▁bedste": 4595,
  "▁hø": 4596,
  "▁anställ": 4597,
  "aden": 4598,
  "▁)\\": 4599,
  "satt": 4600,
  "ENT": 4601,
  "▁fir": 4602,
  "▁London": 4603,
  "skriv": 4604,
  "estaur": 4605,
  "fn": 4606,
  "▁toget": 4607,
  "anda": 4608,
  "▁Dag": 4609,
  "▁holde": 4610,
  "▁minuter": 4611,
  "▁nivå": 4612,
  "ube": 4613,
  "▁seen": 4614,
  "▁Intern": 4615,
  "arts": 4616,
  "▁består": 4617,
  "▁kommunik": 4618,
  "▁Denne": 4619,
  "▁skil": 4620,
  "▁sommer": 4621,
  ");": 4622,
  "▁hæ": 4623,
  "uted": 4624,
  "go": 4625,
  "ius": 4626,
  "nWe": 4627,
  "▁article": 4628,
  "▁host": 4629,
  "▁mist": 4630,
  "▁separ": 4631,
  "▁tänka": 4632,
  "▁fordel": 4633,
  "▁};\\": 4634,
  "▁felt": 4635,
  "▁amb": 4636,
  "▁Tw": 4637,
  "ersom": 4638,
  "np": 4639,
  "ites": 4640,
  "▁arbetar": 4641,
  "▁ton": 4642,
  "fører": 4643,
  "▁close": 4644,
  "eras": 4645,
  "▁ök": 4646,
  "▁ww": 4647,
  "▁altid": 4648,
  "En": 4649,
  "ional": 4650,
  ".)": 4651,
  "▁low": 4652,
  "lished": 4653,
  "▁Jes": 4654,
  "uta": 4655,
  "▁research": 4656,
  "oph": 4657,
  "▁bank": 4658,
  "▁Mark": 4659,
  "ava": 4660,
  "älla": 4661,
  "ules": 4662,
  "▁ep": 4663,
  "▁månader": 4664,
  "▁analy": 4665,
  "▁vak": 4666,
  "press": 4667,
  "pris": 4668,
  "▁antal": 4669,
  "illing": 4670,
  "äster": 4671,
  "ända": 4672,
  "▁Stud": 4673,
  "ohol": 4674,
  "riter": 4675,
  "▁språk": 4676,
  "ætter": 4677,
  "▁default": 4678,
  "▁händer": 4679,
  "▁Ha": 4680,
  "▁Aust": 4681,
  "table": 4682,
  "▁begr": 4683,
  "isert": 4684,
  "▁title": 4685,
  "▁tatt": 4686,
  "▁største": 4687,
  "▁lokal": 4688,
  "▁band": 4689,
  "▁Im": 4690,
  "▁works": 4691,
  "stra": 4692,
  "▁nav": 4693,
  "NS": 4694,
  "▁several": 4695,
  "orge": 4696,
  "pecial": 4697,
  "veg": 4698,
  "▁True": 4699,
  "system": 4700,
  "do": 4701,
  "▁følgende": 4702,
  "▁hå": 4703,
  "▁sista": 4704,
  "▁inspir": 4705,
  "▁aktu": 4706,
  "usen": 4707,
  "▁available": 4708,
  "▁nærm": 4709,
  "▁www": 4710,
  "aga": 4711,
  "okrat": 4712,
  "acc": 4713,
  "▁dessutom": 4714,
  "▁Sa": 4715,
  "▁måtte": 4716,
  "uments": 4717,
  "året": 4718,
  "▁front": 4719,
  "▁ó": 4720,
  "▁trots": 4721,
  "▁ræ": 4722,
  "▁happ": 4723,
  "py": 4724,
  "cell": 4725,
  "nHan": 4726,
  "iven": 4727,
  "aller": 4728,
  "iot": 4729,
  "ndansk": 4730,
  "▁black": 4731,
  "▁förm": 4732,
  "▁sju": 4733,
  "▁gav": 4734,
  "▁stress": 4735,
  "▁above": 4736,
  "▁erfar": 4737,
  "▁følge": 4738,
  "\");\\": 4739,
  "▁Land": 4740,
  "irt": 4741,
  "▁()": 4742,
  "formation": 4743,
  "ples": 4744,
  "ving": 4745,
  "▁hor": 4746,
  "▁meter": 4747,
  "wards": 4748,
  "▁Facebook": 4749,
  "▁meas": 4750,
  "▁tänker": 4751,
  "▁]": 4752,
  "▁trying": 4753,
  "älle": 4754,
  "▁dam": 4755,
  "▁topp": 4756,
  "ato": 4757,
  "▁unge": 4758,
  "gjør": 4759,
  "config": 4760,
  "▁skole": 4761,
  "▁suggest": 4762,
  "ih": 4763,
  "ctory": 4764,
  "try": 4765,
  "▁virkelig": 4766,
  "▁Ass": 4767,
  "▁område": 4768,
  "▁luft": 4769,
  "▁table": 4770,
  "▁ir": 4771,
  "nDer": 4772,
  "▁block": 4773,
  "▁erfarenhet": 4774,
  "urt": 4775,
  "▁ga": 4776,
  "▁Are": 4777,
  "rm": 4778,
  "▁Mart": 4779,
  "juk": 4780,
  "▁IS": 4781,
  "▁dei": 4782,
  "▁error": 4783,
  "ibl": 4784,
  "▁album": 4785,
  "ema": 4786,
  "conom": 4787,
  "▁vansk": 4788,
  "▁regul": 4789,
  "▁*\\": 4790,
  "▁månad": 4791,
  "▁size": 4792,
  "▁Eller": 4793,
  "▁arbeta": 4794,
  "▁national": 4795,
  "▁kopp": 4796,
  "fatter": 4797,
  "comm": 4798,
  "▁bem": 4799,
  "ives": 4800,
  "vå": 4801,
  "For": 4802,
  "EM": 4803,
  "▁:)": 4804,
  "”,": 4805,
  "Ind": 4806,
  "▁resten": 4807,
  "▁inkluder": 4808,
  "[\"": 4809,
  "hav": 4810,
  "▁december": 4811,
  "▁trenger": 4812,
  "▁making": 4813,
  "erm": 4814,
  "jór": 4815,
  "▁heter": 4816,
  "nY": 4817,
  "apt": 4818,
  "call": 4819,
  "▁Fe": 4820,
  "▁tex": 4821,
  "ägg": 4822,
  "iat": 4823,
  "▁States": 4824,
  "▁custom": 4825,
  "▁License": 4826,
  "følg": 4827,
  "ification": 4828,
  "nskap": 4829,
  "lib": 4830,
  "▁Dec": 4831,
  "orten": 4832,
  "▁klim": 4833,
  "not": 4834,
  "rapp": 4835,
  "▁allm": 4836,
  "syn": 4837,
  "urns": 4838,
  "▁köp": 4839,
  "▁Dav": 4840,
  "▁förstår": 4841,
  "▁framför": 4842,
  "▁together": 4843,
  "bon": 4844,
  "},": 4845,
  "▁vård": 4846,
  "▁values": 4847,
  "▁fyra": 4848,
  "▁Mo": 4849,
  "](": 4850,
  "öteborg": 4851,
  "cke": 4852,
  "▁mån": 4853,
  "▁hotel": 4854,
  "▁means": 4855,
  "ligheten": 4856,
  "▁appear": 4857,
  ".”\\": 4858,
  "▁Ang": 4859,
  "▁forskj": 4860,
  "andic": 4861,
  "Hur": 4862,
  "▁delar": 4863,
  "læ": 4864,
  "andid": 4865,
  "▁början": 4866,
  "huset": 4867,
  "▁Nov": 4868,
  "ordin": 4869,
  "▁finner": 4870,
  "nNär": 4871,
  "▁nation": 4872,
  "▁spela": 4873,
  "▁mott": 4874,
  "▁Ly": 4875,
  "spr": 4876,
  "▁asked": 4877,
  "▁bring": 4878,
  "▁ekstra": 4879,
  "▁young": 4880,
  "▁artikel": 4881,
  "nIf": 4882,
  "▁bott": 4883,
  "▁getting": 4884,
  "ordning": 4885,
  "String": 4886,
  "▁tillf": 4887,
  "oende": 4888,
  "▁temper": 4889,
  "▁Mod": 4890,
  "ótt": 4891,
  "▁kommunen": 4892,
  "▁World": 4893,
  "▁makes": 4894,
  "igheder": 4895,
  "▁Inte": 4896,
  "én": 4897,
  "Equal": 4898,
  "▁natt": 4899,
  "▁tas": 4900,
  "▁walk": 4901,
  "omet": 4902,
  "▁handling": 4903,
  "▁vart": 4904,
  "fault": 4905,
  "▁sidan": 4906,
  "onger": 4907,
  "▁lys": 4908,
  "▁båda": 4909,
  "▁arbejde": 4910,
  "▁Park": 4911,
  "kra": 4912,
  "info": 4913,
  "hj": 4914,
  "nda": 4915,
  "▁Ital": 4916,
  "▁slutt": 4917,
  "▁nån": 4918,
  "▁stedet": 4919,
  "äss": 4920,
  "▁author": 4921,
  "▁tor": 4922,
  "create": 4923,
  "▁Post": 4924,
  "▁faktisk": 4925,
  "▁particular": 4926,
  "ished": 4927,
  "inne": 4928,
  "heng": 4929,
  "oden": 4930,
  "agement": 4931,
  "laim": 4932,
  "IK": 4933,
  "öjd": 4934,
  "imum": 4935,
  "kel": 4936,
  "▁konse": 4937,
  "▁ulike": 4938,
  "▁ske": 4939,
  "▁út": 4940,
  "former": 4941,
  "▁Hi": 4942,
  "program": 4943,
  "▁hittar": 4944,
  "▁sikre": 4945,
  "▁letter": 4946,
  "▁blogg": 4947,
  "▁positive": 4948,
  "▁kropp": 4949,
  "What": 4950,
  "▁ovan": 4951,
  "gäng": 4952,
  "▁nothing": 4953,
  "site": 4954,
  "but": 4955,
  "▁spørsmål": 4956,
  "▁character": 4957,
  "▁enkelte": 4958,
  "▁låter": 4959,
  "▁addition": 4960,
  "▁stil": 4961,
  "dem": 4962,
  "▁hjer": 4963,
  "▁Ni": 4964,
  "▁blog": 4965,
  "▁certain": 4966,
  "▁äld": 4967,
  "▁lägga": 4968,
  "head": 4969,
  "rust": 4970,
  "Ph": 4971,
  "▁expect": 4972,
  "▁förhåll": 4973,
  "▁tilby": 4974,
  "kast": 4975,
  "uture": 4976,
  "can": 4977,
  "ström": 4978,
  "idlertid": 4979,
  "▁erbjuder": 4980,
  "oke": 4981,
  "▁account": 4982,
  "▁pak": 4983,
  "nÅ": 4984,
  "▁cy": 4985,
  "▁Tor": 4986,
  "level": 4987,
  "▁stol": 4988,
  "lay": 4989,
  "▁tage": 4990,
  "fråg": 4991,
  "▁önsk": 4992,
  "body": 4993,
  "▁Mus": 4994,
  "▁gillar": 4995,
  "inni": 4996,
  "▁friend": 4997,
  "▁gave": 4998,
  "▁Læs": 4999,
  "▁Don": 5000,
  "▁frase": 5001,
  "rifter": 5002,
  "valu": 5003,
  "▁trygg": 5004,
  "How": 5005,
  "ringar": 5006,
  "action": 5007,
  "▁vanligt": 5008,
  "▁säkert": 5009,
  "▁sæt": 5010,
  "itta": 5011,
  "▁:)\\": 5012,
  "▁others": 5013,
  "deles": 5014,
  "▁anser": 5015,
  "ivt": 5016,
  "nnorsk": 5017,
  "▁Af": 5018,
  "▁ford": 5019,
  "abor": 5020,
  "▁stark": 5021,
  "▁gym": 5022,
  "▁Alle": 5023,
  "nå": 5024,
  "▁traf": 5025,
  "▁Cent": 5026,
  "bord": 5027,
  "▁sidste": 5028,
  "▁Mich": 5029,
  "▁snabbt": 5030,
  "▁Pe": 5031,
  "▁become": 5032,
  "▁Cal": 5033,
  "▁early": 5034,
  "nYou": 5035,
  "▁fortsatt": 5036,
  "▁cover": 5037,
  "▁sle": 5038,
  "▁music": 5039,
  "erer": 5040,
  "▁informasjon": 5041,
  "▁skydd": 5042,
  "▁Ed": 5043,
  "▁kam": 5044,
  "urther": 5045,
  "▁äm": 5046,
  "omas": 5047,
  "▁varandra": 5048,
  "gär": 5049,
  "▁effekt": 5050,
  "iar": 5051,
  "▁vilja": 5052,
  "▁välja": 5053,
  "Wh": 5054,
  "Skriv": 5055,
  "ielt": 5056,
  "EF": 5057,
  "inar": 5058,
  "▁altså": 5059,
  "api": 5060,
  "▁attack": 5061,
  "▁gerne": 5062,
  "▁hjälpa": 5063,
  "▁anyone": 5064,
  "ague": 5065,
  "▁AN": 5066,
  "▁probably": 5067,
  "▁fores": 5068,
  "▁translate": 5069,
  "▁Bro": 5070,
  "▁arm": 5071,
  "▁Sim": 5072,
  "itive": 5073,
  "▁vej": 5074,
  "▁skriva": 5075,
  "ya": 5076,
  "▁cost": 5077,
  "left": 5078,
  "▁Frank": 5079,
  "▁slipp": 5080,
  "▁gången": 5081,
  "sr": 5082,
  "Ser": 5083,
  "fic": 5084,
  "ugg": 5085,
  "fj": 5086,
  "▁experience": 5087,
  "▁cou": 5088,
  "▁bevis": 5089,
  "plate": 5090,
  "▁defin": 5091,
  "▁mör": 5092,
  "▁punkt": 5093,
  "▁känna": 5094,
  "▁ST": 5095,
  "▁action": 5096,
  "▁bost": 5097,
  "▁knapp": 5098,
  "word": 5099,
  "▁fas": 5100,
  "gu": 5101,
  "▁fine": 5102,
  "▁salg": 5103,
  "▁skick": 5104,
  "▁detail": 5105,
  "anne": 5106,
  "▁Køb": 5107,
  "▁dator": 5108,
  "ständ": 5109,
  "▁kommune": 5110,
  "▁Brit": 5111,
  "▁etabler": 5112,
  "▁gamla": 5113,
  "totype": 5114,
  "cken": 5115,
  "vision": 5116,
  "seende": 5117,
  "pat": 5118,
  "ola": 5119,
  "▁base": 5120,
  "yttet": 5121,
  "▁Stat": 5122,
  "▁skab": 5123,
  "bis": 5124,
  "▁lug": 5125,
  "▁pur": 5126,
  "▁läk": 5127,
  "▁recept": 5128,
  "View": 5129,
  "▁Str": 5130,
  "▁Kar": 5131,
  "▁bruge": 5132,
  "▁Bra": 5133,
  "▁config": 5134,
  "▁respons": 5135,
  "alet": 5136,
  "){": 5137,
  "beg": 5138,
  "▁timmar": 5139,
  "▁Gen": 5140,
  "bed": 5141,
  "nAns": 5142,
  "cep": 5143,
  "aged": 5144,
  "▁War": 5145,
  "best": 5146,
  "▁pick": 5147,
  "▁response": 5148,
  "▁Sand": 5149,
  "▁fø": 5150,
  "▁source": 5151,
  "▁partner": 5152,
  "▁started": 5153,
  "▁förv": 5154,
  "▁language": 5155,
  "▁bruger": 5156,
  "sert": 5157,
  "ärem": 5158,
  "visor": 5159,
  "ktionen": 5160,
  "▁media": 5161,
  "vej": 5162,
  "▁lí": 5163,
  "▁mening": 5164,
  "▁stay": 5165,
  "▁administr": 5166,
  "▁government": 5167,
  "embers": 5168,
  "ffer": 5169,
  "▁content": 5170,
  "▁interesting": 5171,
  "ration": 5172,
  "▁Over": 5173,
  "▁namn": 5174,
  "▁vent": 5175,
  "▁samtidig": 5176,
  "komst": 5177,
  "state": 5178,
  "▁whether": 5179,
  "▁industri": 5180,
  "▁energi": 5181,
  "skt": 5182,
  "▁eða": 5183,
  "▁annen": 5184,
  "▁reach": 5185,
  "▁dår": 5186,
  "▁original": 5187,
  "ilde": 5188,
  "▁tok": 5189,
  "▁bruke": 5190,
  "▁series": 5191,
  "loc": 5192,
  "▁Ma": 5193,
  "▁False": 5194,
  "▁range": 5195,
  "▁index": 5196,
  "RA": 5197,
  "jan": 5198,
  "▁bidrag": 5199,
  "▁fal": 5200,
  "▁Part": 5201,
  "▁imm": 5202,
  "▁diskuter": 5203,
  "eren": 5204,
  "lighed": 5205,
  "øren": 5206,
  "append": 5207,
  "▁bonus": 5208,
  "▁spr": 5209,
  "▁except": 5210,
  "pi": 5211,
  "rog": 5212,
  "Sh": 5213,
  "▁presenter": 5214,
  "nVad": 5215,
  "▁deltag": 5216,
  "▁today": 5217,
  "▁dagens": 5218,
  "olv": 5219,
  "ilda": 5220,
  "▁bilen": 5221,
  "che": 5222,
  "▁Mc": 5223,
  "▁væl": 5224,
  "▁ifrån": 5225,
  "▁utvik": 5226,
  "▁mang": 5227,
  "▁pract": 5228,
  "▁idea": 5229,
  "▁senere": 5230,
  "},\\": 5231,
  "▁half": 5232,
  "▁document": 5233,
  "vende": 5234,
  "ribute": 5235,
  "bry": 5236,
  "zz": 5237,
  "vest": 5238,
  "lit": 5239,
  "PS": 5240,
  "lov": 5241,
  "format": 5242,
  "▁bord": 5243,
  "Class": 5244,
  "▁stund": 5245,
  "ured": 5246,
  "▁fungerar": 5247,
  "odes": 5248,
  "▁status": 5249,
  "▁vare": 5250,
  "▁whole": 5251,
  "IV": 5252,
  "▁=>": 5253,
  "▁moment": 5254,
  "\">": 5255,
  "▁president": 5256,
  "▁sund": 5257,
  "empt": 5258,
  "nSom": 5259,
  "rab": 5260,
  "▁fanns": 5261,
  "▁signific": 5262,
  "▁direkte": 5263,
  "▁gro": 5264,
  "ativa": 5265,
  "Par": 5266,
  "▁veckan": 5267,
  "dere": 5268,
  "treturn": 5269,
  "Let": 5270,
  "urity": 5271,
  "▁jobbet": 5272,
  "▁internation": 5273,
  "▁direct": 5274,
  "gsmål": 5275,
  "cho": 5276,
  "ference": 5277,
  "ningarna": 5278,
  "rest": 5279,
  "värr": 5280,
  "stilling": 5281,
  "▁Tur": 5282,
  "▁blå": 5283,
  "▁död": 5284,
  "vironment": 5285,
  "▁flyg": 5286,
  "▁Andre": 5287,
  "▁respekt": 5288,
  "området": 5289,
  "äremot": 5290,
  "Event": 5291,
  ")$": 5292,
  "▁timer": 5293,
  "check": 5294,
  "▁finne": 5295,
  "byr": 5296,
  "ølge": 5297,
  "▁billig": 5298,
  "vård": 5299,
  "▁Lind": 5300,
  "▁sel": 5301,
  "ills": 5302,
  "orsdag": 5303,
  "cription": 5304,
  "eth": 5305,
  "▁season": 5306,
  "▁mun": 5307,
  "iple": 5308,
  "▁image": 5309,
  "NA": 5310,
  "though": 5311,
  "max": 5312,
  "▁rev": 5313,
  "▁death": 5314,
  "▁yet": 5315,
  "▁page": 5316,
  "just": 5317,
  "fund": 5318,
  "ides": 5319,
  "sats": 5320,
  "▁pen": 5321,
  "▁kart": 5322,
  "ersen": 5323,
  "▁treat": 5324,
  "▁sens": 5325,
  "aking": 5326,
  "▁drag": 5327,
  "ffic": 5328,
  "Vad": 5329,
  "▁Ingen": 5330,
  "gi": 5331,
  "▁everything": 5332,
  "arth": 5333,
  "ningsm": 5334,
  "▁forstå": 5335,
  "▁verksamhet": 5336,
  "▁annars": 5337,
  "▁tagit": 5338,
  "▁fær": 5339,
  "▁million": 5340,
  "▁techn": 5341,
  "▁måde": 5342,
  "▁offentlig": 5343,
  "ringen": 5344,
  "(\\\\": 5345,
  "▁complet": 5346,
  "▁vinter": 5347,
  "”.": 5348,
  "Du": 5349,
  "ialog": 5350,
  "▁millioner": 5351,
  "▁intervju": 5352,
  "dö": 5353,
  "########": 5354,
  "▁almost": 5355,
  "imate": 5356,
  "ij": 5357,
  "▁begyn": 5358,
  "▁studie": 5359,
  "stående": 5360,
  "▁pretty": 5361,
  "fyll": 5362,
  "▁stäm": 5363,
  "▁dokument": 5364,
  "ielle": 5365,
  "▁passer": 5366,
  "▁wanted": 5367,
  "▁vor": 5368,
  "▁visa": 5369,
  "event": 5370,
  "Cont": 5371,
  "▁medan": 5372,
  "▁våre": 5373,
  "örer": 5374,
  "ources": 5375,
  "aff": 5376,
  "▁morgon": 5377,
  "▁rapporter": 5378,
  "tok": 5379,
  "mäl": 5380,
  "▁veckor": 5381,
  "skrift": 5382,
  "sper": 5383,
  "▁liknande": 5384,
  "bered": 5385,
  "▁Kn": 5386,
  "SS": 5387,
  "xy": 5388,
  "▁saken": 5389,
  "▁minutes": 5390,
  "apan": 5391,
  "▁Danske": 5392,
  "atures": 5393,
  "▁Alla": 5394,
  "where": 5395,
  "▁statist": 5396,
  "uppgifter": 5397,
  "Value": 5398,
  "▁https": 5399,
  "nHur": 5400,
  "reds": 5401,
  "▁Mad": 5402,
  "ännande": 5403,
  "▁Google": 5404,
  "TER": 5405,
  "▁ænd": 5406,
  "usion": 5407,
  "▁kred": 5408,
  "▁hafi": 5409,
  "gress": 5410,
  "▁støtte": 5411,
  "rump": 5412,
  "iblio": 5413,
  "LO": 5414,
  "uel": 5415,
  "ssystem": 5416,
  "▁Hans": 5417,
  "▁hjemme": 5418,
  "▁flo": 5419,
  "anks": 5420,
  "▁undrar": 5421,
  "▁úr": 5422,
  "resp": 5423,
  "nengelska": 5424,
  "▁aw": 5425,
  "▁Það": 5426,
  "aven": 5427,
  "EG": 5428,
  "vara": 5429,
  "▁European": 5430,
  "enting": 5431,
  "urser": 5432,
  "http": 5433,
  "utions": 5434,
  "rådet": 5435,
  "▁kräv": 5436,
  "annot": 5437,
  "ettet": 5438,
  "▁heim": 5439,
  "partment": 5440,
  "▁impro": 5441,
  "▁computer": 5442,
  "▁Port": 5443,
  "▁Sv": 5444,
  "▁marknad": 5445,
  "▁However": 5446,
  "gra": 5447,
  "kkje": 5448,
  "tere": 5449,
  "▁dö": 5450,
  "▁Hel": 5451,
  "▁Mal": 5452,
  "▁Svensk": 5453,
  "default": 5454,
  "bes": 5455,
  "▁kronor": 5456,
  "▁months": 5457,
  "++": 5458,
  "unkter": 5459,
  "mi": 5460,
  "▁His": 5461,
  "”\\": 5462,
  "Mod": 5463,
  "▁saw": 5464,
  "▁effect": 5465,
  "▁motor": 5466,
  "isten": 5467,
  "nHow": 5468,
  "▁handler": 5469,
  "IR": 5470,
  "ibility": 5471,
  "▁køb": 5472,
  "▁särskilt": 5473,
  "▁försöka": 5474,
  "▁imidlertid": 5475,
  "▁elect": 5476,
  "oad": 5477,
  "▁idé": 5478,
  "▁skolan": 5479,
  "▁song": 5480,
  "\\';\\": 5481,
  "ulation": 5482,
  "▁påver": 5483,
  "▁Opp": 5484,
  "▁dags": 5485,
  "▁avtal": 5486,
  "Object": 5487,
  "emat": 5488,
  "▁Fra": 5489,
  "▁enc": 5490,
  "nPro": 5491,
  "kkur": 5492,
  "▁🙂": 5493,
  "gin": 5494,
  "▁sand": 5495,
  "nAr": 5496,
  "▁alk": 5497,
  "▁National": 5498,
  "▁skul": 5499,
  "ftet": 5500,
  "▁kommit": 5501,
  "▁tanke": 5502,
  "sqrt": 5503,
  "▁Int": 5504,
  "▁Norwegian": 5505,
  "▁lay": 5506,
  "stol": 5507,
  "▁tiltak": 5508,
  "▁krig": 5509,
  "▁across": 5510,
  "umb": 5511,
  "▁sats": 5512,
  "ynam": 5513,
  "räck": 5514,
  "▁Lund": 5515,
  "▁Russ": 5516,
  "frac": 5517,
  "▁introdu": 5518,
  "rott": 5519,
  "▁tit": 5520,
  "sig": 5521,
  "▁anledning": 5522,
  "group": 5523,
  "▁record": 5524,
  "ii": 5525,
  "▁Jan": 5526,
  "▁Che": 5527,
  "ael": 5528,
  "▁perfekt": 5529,
  "▁instance": 5530,
  "ætte": 5531,
  "▁vack": 5532,
  "▁Karl": 5533,
  "last": 5534,
  "cid": 5535,
  "▁link": 5536,
  "▁måned": 5537,
  "nOch": 5538,
  "andom": 5539,
  "minister": 5540,
  "▁recent": 5541,
  "gger": 5542,
  "dle": 5543,
  "▁Sveriges": 5544,
  "▁følger": 5545,
  ",”": 5546,
  "▁input": 5547,
  "ommen": 5548,
  "nenglish": 5549,
  "▁Person": 5550,
  "ique": 5551,
  "▁fart": 5552,
  "dat": 5553,
  "▁TH": 5554,
  "ground": 5555,
  "rong": 5556,
  "▁dry": 5557,
  "▁Engelske": 5558,
  "▁story": 5559,
  "dal": 5560,
  "▁similar": 5561,
  "▁+=": 5562,
  "▁jämför": 5563,
  "▁januar": 5564,
  "▁åp": 5565,
  "▁writ": 5566,
  "ånga": 5567,
  "▁Met": 5568,
  "▁stod": 5569,
  "▁Sund": 5570,
  "▁utanför": 5571,
  "▁eyes": 5572,
  "slaget": 5573,
  "▁After": 5574,
  "▁Cor": 5575,
  "edagog": 5576,
  "äkt": 5577,
  "iction": 5578,
  "▁looked": 5579,
  "▁!=": 5580,
  "san": 5581,
  "▁age": 5582,
  "▁dou": 5583,
  "▁kategor": 5584,
  "▁With": 5585,
  "sec": 5586,
  "Translate": 5587,
  "▁‘": 5588,
  "nHvis": 5589,
  "Le": 5590,
  "vad": 5591,
  "nor": 5592,
  "ively": 5593,
  "selv": 5594,
  "▁Lars": 5595,
  "vrigt": 5596,
  "chen": 5597,
  "▁bäst": 5598,
  "▁development": 5599,
  "::": 5600,
  "▁spelar": 5601,
  "▁lilla": 5602,
  "▁conf": 5603,
  "▁äta": 5604,
  "▁tax": 5605,
  "ML": 5606,
  "ødt": 5607,
  "().": 5608,
  "▁contin": 5609,
  "▁utbildning": 5610,
  "▁previous": 5611,
  "▁IT": 5612,
  "▁kommentarer": 5613,
  "▁Kr": 5614,
  "▁due": 5615,
  "▁fant": 5616,
  "▁target": 5617,
  "▁hom": 5618,
  "perty": 5619,
  "stil": 5620,
  "▁minutter": 5621,
  "▁believe": 5622,
  "kommer": 5623,
  "err": 5624,
  "terna": 5625,
  "menn": 5626,
  "▁term": 5627,
  "ritten": 5628,
  "▁politik": 5629,
  "▁stop": 5630,
  "▁länder": 5631,
  "▁Ben": 5632,
  "▁became": 5633,
  "rif": 5634,
  "gård": 5635,
  "module": 5636,
  "▁among": 5637,
  "ila": 5638,
  "ases": 5639,
  "ination": 5640,
  "orges": 5641,
  "▁isn": 5642,
  "▁hatt": 5643,
  "▁cra": 5644,
  "▁vore": 5645,
  "▁gikk": 5646,
  "▁Sw": 5647,
  "aha": 5648,
  "▁Vill": 5649,
  "köp": 5650,
  "▁patient": 5651,
  "IP": 5652,
  "▁prem": 5653,
  "options": 5654,
  "▁liter": 5655,
  "▁eld": 5656,
  "roller": 5657,
  "ligheter": 5658,
  "▁én": 5659,
  "▁Göteborg": 5660,
  "äker": 5661,
  "df": 5662,
  "▁</": 5663,
  "▁instead": 5664,
  "De": 5665,
  "rix": 5666,
  "▁fore": 5667,
  "▁sør": 5668,
  "▁perspe": 5669,
  "very": 5670,
  "▁mem": 5671,
  "▁således": 5672,
  "▁site": 5673,
  "▁mulighed": 5674,
  "▁final": 5675,
  "valget": 5676,
  "▁liksom": 5677,
  "▁tun": 5678,
  "MS": 5679,
  "▁forh": 5680,
  "▁games": 5681,
  "føring": 5682,
  "▁context": 5683,
  "bit": 5684,
  "▁ingår": 5685,
  "▁Rep": 5686,
  "▁sko": 5687,
  "jektet": 5688,
  "øger": 5689,
  "▁pra": 5690,
  "anten": 5691,
  "▁våld": 5692,
  "It": 5693,
  "endes": 5694,
  "▁nemlig": 5695,
  "ppa": 5696,
  "osen": 5697,
  "▁modern": 5698,
  "nhttp": 5699,
  "bt": 5700,
  "bra": 5701,
  "▁laget": 5702,
  "And": 5703,
  "▁search": 5704,
  "▁sold": 5705,
  "▁Dr": 5706,
  "▁slå": 5707,
  "▁ikkje": 5708,
  "▁Sal": 5709,
  "▁associ": 5710,
  "▁assistant": 5711,
  "▁ganske": 5712,
  "▁recomm": 5713,
  "\\').": 5714,
  "▁Tro": 5715,
  "▁German": 5716,
  "osial": 5717,
  "▁enter": 5718,
  "▁frit": 5719,
  "Ég": 5720,
  "▁följer": 5721,
  "▁vite": 5722,
  "OP": 5723,
  "▁white": 5724,
  "▁begge": 5725,
  "▁spiller": 5726,
  "▁hours": 5727,
  "▁holder": 5728,
  "error": 5729,
  "issa": 5730,
  "▁Hall": 5731,
  "▁løs": 5732,
  "▁framtid": 5733,
  "uration": 5734,
  "▁används": 5735,
  "▁vux": 5736,
  "node": 5737,
  "▁ögon": 5738,
  "prototype": 5739,
  "rael": 5740,
  "▁fredag": 5741,
  "star": 5742,
  "▁eneste": 5743,
  "▁potential": 5744,
  "Element": 5745,
  "cm": 5746,
  "▁rather": 5747,
  "ocus": 5748,
  "▁aktiviteter": 5749,
  "ørt": 5750,
  "usive": 5751,
  "▁individu": 5752,
  "]{": 5753,
  "▁clear": 5754,
  "loss": 5755,
  "ór": 5756,
  "▁typer": 5757,
  "oud": 5758,
  "ckte": 5759,
  "▁slags": 5760,
  "▁fuld": 5761,
  "▁Peter": 5762,
  "han": 5763,
  "▁Norske": 5764,
  "▁texten": 5765,
  "OK": 5766,
  "ini": 5767,
  "▁Erik": 5768,
  "▁Tid": 5769,
  "▁bir": 5770,
  "isjon": 5771,
  "▁plus": 5772,
  "▁kunst": 5773,
  "▁required": 5774,
  "▁Kom": 5775,
  "▁massa": 5776,
  "▁Danish": 5777,
  "TT": 5778,
  "oler": 5779,
  "emang": 5780,
  "ante": 5781,
  "▁Eg": 5782,
  "None": 5783,
  "iler": 5784,
  "fest": 5785,
  "elect": 5786,
  "});\\": 5787,
  "eningen": 5788,
  "room": 5789,
  "▁argument": 5790,
  "▁medicin": 5791,
  "▁woman": 5792,
  "▁hoteller": 5793,
  "',\\": 5794,
  "▁student": 5795,
  "▁dj": 5796,
  "center": 5797,
  "inga": 5798,
  "▁län": 5799,
  "▁House": 5800,
  "▁barne": 5801,
  "élag": 5802,
  "▁Black": 5803,
  "kraft": 5804,
  "([": 5805,
  "▁kär": 5806,
  "otte": 5807,
  "varande": 5808,
  "▁samband": 5809,
  "▁vol": 5810,
  "▁kjen": 5811,
  "▁Arbe": 5812,
  "▁Was": 5813,
  "▁tí": 5814,
  "▁shall": 5815,
  "▁vem": 5816,
  "▁fördel": 5817,
  "boll": 5818,
  "skole": 5819,
  "▁försöker": 5820,
  "!!!": 5821,
  "▁fantastisk": 5822,
  "▁igenom": 5823,
  "▁West": 5824,
  "▁space": 5825,
  "▁budget": 5826,
  "nAtt": 5827,
  "▁visst": 5828,
  "▁ago": 5829,
  "▁värdet": 5830,
  "ösa": 5831,
  "mal": 5832,
  "akk": 5833,
  "joy": 5834,
  "▁frågan": 5835,
  "▁Mag": 5836,
  "ensive": 5837,
  "iens": 5838,
  "▁taken": 5839,
  "▁normalt": 5840,
  "▁sentence": 5841,
  "▁proble": 5842,
  "▁lad": 5843,
  "▁himself": 5844,
  "▁innen": 5845,
  "▁äldre": 5846,
  "ælles": 5847,
  "bs": 5848,
  "▁måte": 5849,
  "till": 5850,
  "oppas": 5851,
  "nVar": 5852,
  "bre": 5853,
  "▁ljus": 5854,
  "▁digit": 5855,
  "▁SE": 5856,
  "▁ark": 5857,
  "▁len": 5858,
  "äver": 5859,
  "▁jobba": 5860,
  "td": 5861,
  "▁slag": 5862,
  "▁kompl": 5863,
  "igtigt": 5864,
  "\",\"": 5865,
  "▁dre": 5866,
  "ship": 5867,
  "▁nødvendig": 5868,
  "inget": 5869,
  "ires": 5870,
  "jag": 5871,
  "melser": 5872,
  "▁market": 5873,
  "átt": 5874,
  "inning": 5875,
  "Text": 5876,
  "▁Afr": 5877,
  "▁meddel": 5878,
  "▁seems": 5879,
  "oon": 5880,
  "▁South": 5881,
  "▁befolk": 5882,
  "sätter": 5883,
  "▁affär": 5884,
  "▁huset": 5885,
  "▁history": 5886,
  "▁konkurr": 5887,
  "▁cit": 5888,
  "All": 5889,
  "▁wait": 5890,
  "▁significant": 5891,
  "öter": 5892,
  "nBut": 5893,
  "▁Why": 5894,
  "mor": 5895,
  "▁hud": 5896,
  "ption": 5897,
  "levelse": 5898,
  "▁foret": 5899,
  "])\\": 5900,
  "▁array": 5901,
  "▁låt": 5902,
  "▁Foto": 5903,
  "▁ytterligare": 5904,
  "irs": 5905,
  "▁högre": 5906,
  "▁oro": 5907,
  "▁sida": 5908,
  "▁skatt": 5909,
  "▁expected": 5910,
  "▁Sil": 5911,
  "Field": 5912,
  "▁þetta": 5913,
  "ón": 5914,
  "▁Austral": 5915,
  "▁Sec": 5916,
  "rown": 5917,
  "▁samtal": 5918,
  "elling": 5919,
  "ubben": 5920,
  "▁inns": 5921,
  "▁arrang": 5922,
  "osition": 5923,
  "▁message": 5924,
  "▁rekomm": 5925,
  "▁journal": 5926,
  "▁såd": 5927,
  "▁property": 5928,
  "punkt": 5929,
  "▁include": 5930,
  "count": 5931,
  "rafer": 5932,
  "\"}": 5933,
  "▁scen": 5934,
  "▁refle": 5935,
  "▁friends": 5936,
  "▁morgen": 5937,
  "▁samm": 5938,
  "▁Mac": 5939,
  "trans": 5940,
  "lede": 5941,
  "blik": 5942,
  "▁problemer": 5943,
  "▁econom": 5944,
  "▁varier": 5945,
  "Is": 5946,
  "with": 5947,
  "reen": 5948,
  "skje": 5949,
  "ämp": 5950,
  "board": 5951,
  "▁blandt": 5952,
  "fast": 5953,
  "ams": 5954,
  "▁lands": 5955,
  "ison": 5956,
  "nEfter": 5957,
  "▁symbol": 5958,
  "Time": 5959,
  "skolan": 5960,
  "ót": 5961,
  "▁phys": 5962,
  "map": 5963,
  "▁helse": 5964,
  "▁cyk": 5965,
  "▁naturlig": 5966,
  "▁expl": 5967,
  "▁særlig": 5968,
  "nclass": 5969,
  "▁dim": 5970,
  "ances": 5971,
  "▁automated": 5972,
  "▁säl": 5973,
  "▁steg": 5974,
  "▁five": 5975,
  "▁dru": 5976,
  "▁Ret": 5977,
  "▁konsekv": 5978,
  "▁arbejd": 5979,
  "▁center": 5980,
  "vok": 5981,
  "Array": 5982,
  "▁foot": 5983,
  "▁rim": 5984,
  "zy": 5985,
  "▁trev": 5986,
  "▁Bet": 5987,
  "▁hjel": 5988,
  "avsett": 5989,
  "celandic": 5990,
  "▁svo": 5991,
  "vit": 5992,
  "ellet": 5993,
  "▁språ": 5994,
  "▁frå": 5995,
  "▁indic": 5996,
  "▁Mor": 5997,
  "▁sök": 5998,
  "ämt": 5999,
  "▁quick": 6000,
  "Anonym": 6001,
  "version": 6002,
  "▁simple": 6003,
  "▁förbätt": 6004,
  "nSe": 6005,
  "▁Hand": 6006,
  "▁kanskje": 6007,
  "æd": 6008,
  "▁Vest": 6009,
  "nr": 6010,
  "▁lära": 6011,
  "▁risik": 6012,
  "▁sätta": 6013,
  "asing": 6014,
  "▁þegar": 6015,
  "pre": 6016,
  "▁kombin": 6017,
  "KK": 6018,
  "▁continu": 6019,
  "▁North": 6020,
  "amn": 6021,
  "▁kir": 6022,
  "▁ball": 6023,
  "▁State": 6024,
  "▁learn": 6025,
  "aken": 6026,
  "▁struktur": 6027,
  "▁Then": 6028,
  "▁utred": 6029,
  "deling": 6030,
  "▁Jon": 6031,
  "▁info": 6032,
  "▁Trump": 6033,
  "▁August": 6034,
  "ðum": 6035,
  "amt": 6036,
  "ological": 6037,
  "▁words": 6038,
  "▁tap": 6039,
  "▁rab": 6040,
  "▁respect": 6041,
  "▁extrem": 6042,
  "▁Restaur": 6043,
  "▁fred": 6044,
  "nMar": 6045,
  "▁bene": 6046,
  "▁park": 6047,
  "hæng": 6048,
  "skland": 6049,
  "▁ansök": 6050,
  "ros": 6051,
  "▁mode": 6052,
  "nummer": 6053,
  "▁studer": 6054,
  "æss": 6055,
  "ico": 6056,
  "▁miljoner": 6057,
  "rary": 6058,
  "his": 6059,
  "spec": 6060,
  "▁endnu": 6061,
  "▁fullt": 6062,
  "nAnswer": 6063,
  "▁gange": 6064,
  "▁delt": 6065,
  "▁however": 6066,
  "Al": 6067,
  "▁Kommun": 6068,
  "▁åka": 6069,
  "behandling": 6070,
  "▁læng": 6071,
  "polit": 6072,
  "▁wrong": 6073,
  "input": 6074,
  "▁spørgsmål": 6075,
  "rene": 6076,
  "ume": 6077,
  "pol": 6078,
  "▁lager": 6079,
  "▁selskap": 6080,
  "▁strong": 6081,
  "ikke": 6082,
  "▁Bre": 6083,
  "ækker": 6084,
  "▁word": 6085,
  "▁spar": 6086,
  "SK": 6087,
  "aa": 6088,
  "▁oms": 6089,
  "▁Pat": 6090,
  "▁rigtig": 6091,
  "▁kostnad": 6092,
  "▁innov": 6093,
  "▁muligt": 6094,
  "▁mad": 6095,
  "▁row": 6096,
  "▁Á": 6097,
  "▁attra": 6098,
  "igg": 6099,
  "maz": 6100,
  "▁rygg": 6101,
  "▁udd": 6102,
  "skapet": 6103,
  "gave": 6104,
  "▁sann": 6105,
  "stud": 6106,
  "▁dermed": 6107,
  "▁otro": 6108,
  "▁batter": 6109,
  "▁future": 6110,
  "tan": 6111,
  "▁move": 6112,
  "▁finnes": 6113,
  "▁Även": 6114,
  "▁foran": 6115,
  "range": 6116,
  "▁mit": 6117,
  "organis": 6118,
  "▁concer": 6119,
  "▁Hvor": 6120,
  "▁England": 6121,
  "▁straff": 6122,
  "▁snar": 6123,
  "▁demon": 6124,
  "host": 6125,
  "▁ell": 6126,
  "vare": 6127,
  "ngen": 6128,
  "▁Super": 6129,
  "▁tried": 6130,
  "chef": 6131,
  "▁plast": 6132,
  "område": 6133,
  "▁yfir": 6134,
  "▁krist": 6135,
  "▁global": 6136,
  "edes": 6137,
  "▁Etter": 6138,
  "size": 6139,
  "▁känsl": 6140,
  "}{": 6141,
  "eters": 6142,
  "adem": 6143,
  "▁(\\'": 6144,
  "▁necess": 6145,
  "øv": 6146,
  "sing": 6147,
  "▁vera": 6148,
  "▁plass": 6149,
  "▁bakom": 6150,
  "lor": 6151,
  "sfor": 6152,
  "ställning": 6153,
  "▁node": 6154,
  "▁utvikling": 6155,
  "nOg": 6156,
  "▁definit": 6157,
  "kering": 6158,
  "Ant": 6159,
  "laget": 6160,
  "ero": 6161,
  "okk": 6162,
  "▁jobbar": 6163,
  "▁navn": 6164,
  "anti": 6165,
  "▁foresl": 6166,
  "▁lett": 6167,
  "enk": 6168,
  "▁instru": 6169,
  "▁lock": 6170,
  "▁bygger": 6171,
  "ply": 6172,
  "▁fina": 6173,
  "▁skatte": 6174,
  "landet": 6175,
  "▁föräldrar": 6176,
  "ties": 6177,
  "▁familj": 6178,
  "▁(!": 6179,
  "▁members": 6180,
  "▁Dem": 6181,
  "▁Windows": 6182,
  "raw": 6183,
  "unum": 6184,
  "▁claim": 6185,
  "aves": 6186,
  "pan": 6187,
  "▁End": 6188,
  "Se": 6189,
  "▁negative": 6190,
  "▁skillnad": 6191,
  "Query": 6192,
  "▁everyone": 6193,
  "▁ef": 6194,
  "ables": 6195,
  "▁Social": 6196,
  "▁output": 6197,
  "▁Malm": 6198,
  "yss": 6199,
  "utveck": 6200,
  "TO": 6201,
  "▁wasn": 6202,
  "▁uppgifter": 6203,
  "▁jäv": 6204,
  "▁bolig": 6205,
  "▁nät": 6206,
  "▁Je": 6207,
  "){\\": 6208,
  "endet": 6209,
  "▁address": 6210,
  "▁bidra": 6211,
  "nf": 6212,
  "ærk": 6213,
  "lock": 6214,
  "▁.']": 6215,
  "jekter": 6216,
  "selves": 6217,
  "istisk": 6218,
  "▁Bel": 6219,
  "vene": 6220,
  "▁AL": 6221,
  "▁smart": 6222,
  "▁hjälper": 6223,
  "DE": 6224,
  "ensk": 6225,
  "nAs": 6226,
  "▁Op": 6227,
  "▁ti": 6228,
  "cil": 6229,
  "▁pas": 6230,
  "▁software": 6231,
  "Res": 6232,
  "▁box": 6233,
  "▁Paul": 6234,
  "▁behind": 6235,
  "føres": 6236,
  "▁förra": 6237,
  "su": 6238,
  "umber": 6239,
  "▁drive": 6240,
  "▁provide": 6241,
  "▁vänner": 6242,
  "efär": 6243,
  "gor": 6244,
  "▁förklar": 6245,
  "▁accep": 6246,
  "▁allmän": 6247,
  "▁relevant": 6248,
  "▁initial": 6249,
  "▁verdens": 6250,
  "▁má": 6251,
  "▁Produ": 6252,
  "▁Japan": 6253,
  "▁Johan": 6254,
  "sik": 6255,
  "itted": 6256,
  "▁constru": 6257,
  "valid": 6258,
  "▁approach": 6259,
  "▁dating": 6260,
  "edia": 6261,
  "\";\\": 6262,
  "▁kommet": 6263,
  "▁soc": 6264,
  "▁agre": 6265,
  "▁skog": 6266,
  "▁datab": 6267,
  "▁style": 6268,
  "▁(\"": 6269,
  "ospital": 6270,
  "▁tæn": 6271,
  "ansvar": 6272,
  "▁skjer": 6273,
  "▁Nå": 6274,
  "▁betala": 6275,
  "▁gul": 6276,
  "▁services": 6277,
  "▁väljer": 6278,
  "status": 6279,
  "pha": 6280,
  "▁driver": 6281,
  "▁delen": 6282,
  "▁Mot": 6283,
  "▁girl": 6284,
  "▁Cre": 6285,
  "▁role": 6286,
  "▁Ob": 6287,
  "▁Net": 6288,
  "▁roligt": 6289,
  "▁knew": 6290,
  "vinn": 6291,
  "orden": 6292,
  "▁These": 6293,
  "▁värde": 6294,
  "▁vanskelig": 6295,
  "▁employ": 6296,
  "esse": 6297,
  "pes": 6298,
  "øs": 6299,
  "arter": 6300,
  "order": 6301,
  "yrk": 6302,
  "mu": 6303,
  "▁kræ": 6304,
  "medi": 6305,
  "enda": 6306,
  "▁Dire": 6307,
  "▁gas": 6308,
  "▁color": 6309,
  "▁amount": 6310,
  "▁händ": 6311,
  "▁udvik": 6312,
  "skatt": 6313,
  "dire": 6314,
  "▁patients": 6315,
  "umer": 6316,
  "▁besök": 6317,
  "▁januari": 6318,
  "▁King": 6319,
  "▁cho": 6320,
  "▁Did": 6321,
  "IB": 6322,
  "ängd": 6323,
  "sida": 6324,
  "label": 6325,
  "▁Københ": 6326,
  "▁mann": 6327,
  "▁Allt": 6328,
  "kår": 6329,
  "væ": 6330,
  "▁Carl": 6331,
  "▁Pres": 6332,
  "▁Sig": 6333,
  "DS": 6334,
  "▁further": 6335,
  "▁Jack": 6336,
  "▁samarbeid": 6337,
  "arden": 6338,
  "apter": 6339,
  "▁spil": 6340,
  "▁matter": 6341,
  "▁sikkert": 6342,
  "▁Någ": 6343,
  "▁såsom": 6344,
  "bladet": 6345,
  "▁segir": 6346,
  "▁Stort": 6347,
  "▁kg": 6348,
  "sigt": 6349,
  "…\\": 6350,
  "ounter": 6351,
  "▁Kj": 6352,
  "rede": 6353,
  "ief": 6354,
  "▁brott": 6355,
  "▁dotter": 6356,
  "▁began": 6357,
  "▁nú": 6358,
  "script": 6359,
  "▁penge": 6360,
  "▁medlemmer": 6361,
  "▁optim": 6362,
  "gest": 6363,
  "▁Ke": 6364,
  "▁prop": 6365,
  "▁goda": 6366,
  "Node": 6367,
  "▁leik": 6368,
  "▁digital": 6369,
  "nHer": 6370,
  "▁igår": 6371,
  "aving": 6372,
  "▁ný": 6373,
  "▁svart": 6374,
  "ators": 6375,
  "ski": 6376,
  "▁Jesus": 6377,
  "▁cannot": 6378,
  "rap": 6379,
  "▁les": 6380,
  "För": 6381,
  "▁åtgär": 6382,
  "▁tager": 6383,
  "pped": 6384,
  "▁exam": 6385,
  "▁svår": 6386,
  "▁År": 6387,
  "▁gift": 6388,
  "▁estab": 6389,
  "ørende": 6390,
  "ningsl": 6391,
  "▁passar": 6392,
  "▁måske": 6393,
  "▁alvor": 6394,
  "▁written": 6395,
  "print": 6396,
  "▁taking": 6397,
  "▁detaljer": 6398,
  "▁totalt": 6399,
  "nWhat": 6400,
  "nytt": 6401,
  "Sig": 6402,
  "▁Off": 6403,
  "▁See": 6404,
  "nEr": 6405,
  "ises": 6406,
  "hl": 6407,
  "▁six": 6408,
  "▁Christian": 6409,
  "▁building": 6410,
  "▁bö": 6411,
  "▁hell": 6412,
  "ente": 6413,
  "företag": 6414,
  "ermin": 6415,
  "▁sympt": 6416,
  "▁givet": 6417,
  "rikt": 6418,
  "▁subject": 6419,
  "ects": 6420,
  "rater": 6421,
  "essor": 6422,
  "iverse": 6423,
  "▁avslut": 6424,
  "▁Sep": 6425,
  "▁David": 6426,
  "hu": 6427,
  "▁paragraph": 6428,
  "▁pict": 6429,
  "▁deal": 6430,
  "agram": 6431,
  "ention": 6432,
  "vas": 6433,
  "▁door": 6434,
  "AK": 6435,
  "elefon": 6436,
  "▁uppdrag": 6437,
  "▁visit": 6438,
  "▁mother": 6439,
  "▁pga": 6440,
  "▁gemensamma": 6441,
  "▁nej": 6442,
  "skott": 6443,
  "liv": 6444,
  "▁hands": 6445,
  "autom": 6446,
  "værende": 6447,
  "▁riktig": 6448,
  "....\\": 6449,
  "▁diagn": 6450,
  "sat": 6451,
  "ologisk": 6452,
  "▁Ta": 6453,
  "▁Fort": 6454,
  "jef": 6455,
  "▁engelske": 6456,
  "allt": 6457,
  "▁jud": 6458,
  "▁kurs": 6459,
  "▁egne": 6460,
  "▁inside": 6461,
  "tings": 6462,
  "soft": 6463,
  "▁Paris": 6464,
  "▁easy": 6465,
  "▁mál": 6466,
  "skon": 6467,
  "▁nåt": 6468,
  "▁dage": 6469,
  "ests": 6470,
  "▁Count": 6471,
  "▁Leg": 6472,
  "pend": 6473,
  "▁quite": 6474,
  "▁orsak": 6475,
  "▁needs": 6476,
  "▁Any": 6477,
  "nThere": 6478,
  "▁lave": 6479,
  "▁omdö": 6480,
  "▁brand": 6481,
  "▁nyt": 6482,
  "▁finder": 6483,
  "▁ess": 6484,
  "jälv": 6485,
  "▁lägen": 6486,
  "▁tillgäng": 6487,
  "PR": 6488,
  "igned": 6489,
  "iell": 6490,
  "hel": 6491,
  "▁djur": 6492,
  "▁glass": 6493,
  "▁describ": 6494,
  "▁ful": 6495,
  "grunn": 6496,
  "By": 6497,
  "▁arbetet": 6498,
  "givning": 6499,
  "▁comes": 6500,
  "));\\": 6501,
  "▁tale": 6502,
  "▁third": 6503,
  "▁bygge": 6504,
  "▁seks": 6505,
  "resh": 6506,
  "▁gitt": 6507,
  "ár": 6508,
  "Sc": 6509,
  "ligtvis": 6510,
  "▁..": 6511,
  "▁hvilke": 6512,
  "▁exec": 6513,
  "No": 6514,
  "istic": 6515,
  "▁Nej": 6516,
  "▁influ": 6517,
  "▁created": 6518,
  "▁points": 6519,
  "▁sjukdom": 6520,
  "▁behøver": 6521,
  "▁central": 6522,
  "▁utifrån": 6523,
  "▁environment": 6524,
  "ussion": 6525,
  "Att": 6526,
  "gaver": 6527,
  "anal": 6528,
  "icks": 6529,
  "Comm": 6530,
  "▁loss": 6531,
  "».": 6532,
  "▁Derfor": 6533,
  "▁below": 6534,
  "ditions": 6535,
  "▁happened": 6536,
  "▁medier": 6537,
  "▁Lu": 6538,
  "iously": 6539,
  "▁Spe": 6540,
  "estern": 6541,
  "▁äg": 6542,
  "▁distr": 6543,
  "▁initi": 6544,
  "▁dens": 6545,
  "▁�": 6546,
  "alle": 6547,
  "▁terms": 6548,
  "lere": 6549,
  "▁teach": 6550,
  "usjon": 6551,
  "arbejde": 6552,
  "▁trött": 6553,
  "▁heart": 6554,
  "sin": 6555,
  "▁needed": 6556,
  "](#": 6557,
  "▁dum": 6558,
  "▁alkohol": 6559,
  "▁energy": 6560,
  "▁PC": 6561,
  "▁jur": 6562,
  "mas": 6563,
  "▁enjoy": 6564,
  "▁window": 6565,
  "▁glas": 6566,
  "melse": 6567,
  "sliv": 6568,
  "▁doll": 6569,
  "▁salt": 6570,
  "åra": 6571,
  "▁turned": 6572,
  "▁Alex": 6573,
  "▁lokale": 6574,
  "▁Mr": 6575,
  "växt": 6576,
  "▁utom": 6577,
  "öka": 6578,
  "▁funktion": 6579,
  "attle": 6580,
  "▁valid": 6581,
  "▁uttry": 6582,
  "▁events": 6583,
  "▁nöd": 6584,
  "lene": 6585,
  "imul": 6586,
  "▁load": 6587,
  "▁sense": 6588,
  "åde": 6589,
  "▁sky": 6590,
  "▁igång": 6591,
  "▁byen": 6592,
  "▁prata": 6593,
  "▁häng": 6594,
  "▁length": 6595,
  "▁father": 6596,
  "▁undersök": 6597,
  "▁cells": 6598,
  "oul": 6599,
  "taget": 6600,
  "▁række": 6601,
  "▁party": 6602,
  "▁desig": 6603,
  "▁EN": 6604,
  "▁hensyn": 6605,
  "tjän": 6606,
  "nOn": 6607,
  "empl": 6608,
  "▁running": 6609,
  "oster": 6610,
  "lam": 6611,
  "▁lyss": 6612,
  "▁kem": 6613,
  "__(": 6614,
  "▁\"$": 6615,
  "stein": 6616,
  "▁Sn": 6617,
  "▁heard": 6618,
  "_{\\\\": 6619,
  "▁express": 6620,
  "Index": 6621,
  "▁Berg": 6622,
  "▁Some": 6623,
  "▁perm": 6624,
  "eleg": 6625,
  "▁Sta": 6626,
  "varer": 6627,
  "▁pred": 6628,
  "▁adgang": 6629,
  "▁Tre": 6630,
  "▁cross": 6631,
  "▁steder": 6632,
  "top": 6633,
  "▁System": 6634,
  "▁älskar": 6635,
  "▁ground": 6636,
  "▁expla": 6637,
  "Om": 6638,
  "TS": 6639,
  "▁Fast": 6640,
  "oom": 6641,
  "▁ansatte": 6642,
  "▁åb": 6643,
  "skaper": 6644,
  "▁problemet": 6645,
  "utbild": 6646,
  "▁mask": 6647,
  "repr": 6648,
  "▁tør": 6649,
  "sum": 6650,
  "▁Fors": 6651,
  "▁leng": 6652,
  "▁rid": 6653,
  "▁hjelp": 6654,
  "Im": 6655,
  "▁baby": 6656,
  "▁ax": 6657,
  "PL": 6658,
  "▁outside": 6659,
  "alla": 6660,
  "▁itself": 6661,
  "unar": 6662,
  "▁grå": 6663,
  "▁exact": 6664,
  "▁Bor": 6665,
  "▁price": 6666,
  "nex": 6667,
  "▁educ": 6668,
  "thon": 6669,
  "▁accept": 6670,
  "▁remember": 6671,
  "väl": 6672,
  "nl": 6673,
  "▁FOR": 6674,
  "▁Ég": 6675,
  "width": 6676,
  "vention": 6677,
  "rike": 6678,
  "endom": 6679,
  "▁kaffe": 6680,
  "istan": 6681,
  "ided": 6682,
  "ori": 6683,
  "vriga": 6684,
  "spill": 6685,
  "ERT": 6686,
  "▁cirka": 6687,
  "▁lær": 6688,
  "▁ingenting": 6689,
  "▁försv": 6690,
  "▁track": 6691,
  "▁lög": 6692,
  "▁added": 6693,
  "struktur": 6694,
  "fit": 6695,
  "$.": 6696,
  "▁countries": 6697,
  "▁tillgång": 6698,
  "▁stig": 6699,
  "nNor": 6700,
  "etten": 6701,
  "ango": 6702,
  "▁aldri": 6703,
  "▁avsl": 6704,
  "ovis": 6705,
  "position": 6706,
  "▁received": 6707,
  "▁onsdag": 6708,
  "▁bind": 6709,
  "base": 6710,
  "▁laver": 6711,
  "ælde": 6712,
  "nMan": 6713,
  "ensjon": 6714,
  "▁Ell": 6715,
  "▁ox": 6716,
  "▁Tack": 6717,
  "ba": 6718,
  "▁lære": 6719,
  "▁finansier": 6720,
  "sø": 6721,
  "rench": 6722,
  "▁stk": 6723,
  "▁ene": 6724,
  "▁dåligt": 6725,
  "sequ": 6726,
  "▁products": 6727,
  "▁Ska": 6728,
  "▁played": 6729,
  "▁studier": 6730,
  "▁rekke": 6731,
  "▁origin": 6732,
  "ULL": 6733,
  "▁International": 6734,
  "▁menn": 6735,
  "tthis": 6736,
  "følgelig": 6737,
  "▁mail": 6738,
  "px": 6739,
  "▁Cont": 6740,
  "((": 6741,
  "▁stað": 6742,
  "cast": 6743,
  "▁evalu": 6744,
  "▁familie": 6745,
  "▁försök": 6746,
  "oker": 6747,
  "unnar": 6748,
  "▁kommuner": 6749,
  "▁natten": 6750,
  "UM": 6751,
  "opyr": 6752,
  "▁meningen": 6753,
  "▁indust": 6754,
  "▁ont": 6755,
  "▁Ham": 6756,
  "process": 6757,
  "▁ordning": 6758,
  "▁compet": 6759,
  "▁kolla": 6760,
  "tre": 6761,
  "▁höra": 6762,
  "▁Rom": 6763,
  "▁Rad": 6764,
  "▁beror": 6765,
  "▁dels": 6766,
  "▁crit": 6767,
  "▁myself": 6768,
  "▁påvir": 6769,
  "▁Ak": 6770,
  "fald": 6771,
  "lac": 6772,
  "▁Ag": 6773,
  "rym": 6774,
  "▁Polit": 6775,
  "ista": 6776,
  "▁files": 6777,
  "▁universitet": 6778,
  "$\\\\": 6779,
  "▁vägen": 6780,
  "ows": 6781,
  "▁krävs": 6782,
  "iode": 6783,
  "ses": 6784,
  "▁Stor": 6785,
  "iella": 6786,
  "ifte": 6787,
  "asm": 6788,
  "oes": 6789,
  "▁Ele": 6790,
  "▁Of": 6791,
  "▁likely": 6792,
  "ålet": 6793,
  "........": 6794,
  "▁syke": 6795,
  "unity": 6796,
  "spolit": 6797,
  "▁Dom": 6798,
  "nDette": 6799,
  "▁changes": 6800,
  "▁mach": 6801,
  "gjeng": 6802,
  "hal": 6803,
  "▁plant": 6804,
  "▁Center": 6805,
  "▁SV": 6806,
  "▁handle": 6807,
  "▁misst": 6808,
  "▁hvorfor": 6809,
  "▁late": 6810,
  "def": 6811,
  ")']": 6812,
  "uren": 6813,
  "▁clean": 6814,
  "atic": 6815,
  "▁website": 6816,
  "▁Bu": 6817,
  "▁aud": 6818,
  "▁issue": 6819,
  "ledge": 6820,
  "▁bod": 6821,
  "▁mg": 6822,
  "▁Test": 6823,
  "▁lost": 6824,
  "▁forvent": 6825,
  "▁ko": 6826,
  "▁civil": 6827,
  "▁abs": 6828,
  "▁tool": 6829,
  "▁Pre": 6830,
  "array": 6831,
  "iddel": 6832,
  "ners": 6833,
  "eskriv": 6834,
  "▁Play": 6835,
  "Key": 6836,
  "nÄr": 6837,
  "▁phot": 6838,
  "▁allvar": 6839,
  "▁Varför": 6840,
  "▁popular": 6841,
  "Sp": 6842,
  "▁skit": 6843,
  "▁display": 6844,
  "fan": 6845,
  "▁ungefär": 6846,
  "▁fortsätta": 6847,
  "▁card": 6848,
  "▁Antag": 6849,
  "▁årets": 6850,
  "erk": 6851,
  "▁oftast": 6852,
  "▁Martin": 6853,
  "▁kast": 6854,
  "yst": 6855,
  "▁quality": 6856,
  "brug": 6857,
  "▁squ": 6858,
  "wood": 6859,
  "▁yng": 6860,
  "▁hotellet": 6861,
  "▁skrift": 6862,
  "anc": 6863,
  "ulture": 6864,
  "öder": 6865,
  "▁dead": 6866,
  "▁taget": 6867,
  "▁åren": 6868,
  "▁anim": 6869,
  "▁sige": 6870,
  "▁beaut": 6871,
  "web": 6872,
  "/**\\": 6873,
  "▁sosial": 6874,
  "▁usually": 6875,
  "natt": 6876,
  "ingu": 6877,
  "vide": 6878,
  "Comp": 6879,
  "▁síð": 6880,
  "eless": 6881,
  "opyright": 6882,
  "quest": 6883,
  "▁snygg": 6884,
  "nir": 6885,
  "järn": 6886,
  "style": 6887,
  "▁infe": 6888,
  "▁forret": 6889,
  "Item": 6890,
  "▁longer": 6891,
  "▁Janu": 6892,
  "kkes": 6893,
  "▁triv": 6894,
  "!!\\": 6895,
  "pecially": 6896,
  "repp": 6897,
  "ytte": 6898,
  "▁Anna": 6899,
  "▁musk": 6900,
  "sker": 6901,
  "atin": 6902,
  "pg": 6903,
  "bind": 6904,
  "EST": 6905,
  "▁repres": 6906,
  "▁Alt": 6907,
  "uset": 6908,
  "jent": 6909,
  "▁blood": 6910,
  "efined": 6911,
  "▁nummer": 6912,
  "▁intressant": 6913,
  "▁områder": 6914,
  "ought": 6915,
  "dr": 6916,
  "▁Rec": 6917,
  "▁station": 6918,
  "▁tyckte": 6919,
  "▁buss": 6920,
  "marks": 6921,
  "▁fit": 6922,
  "▁living": 6923,
  "▁korre": 6924,
  "▁opin": 6925,
  "nk": 6926,
  "▁præ": 6927,
  "▁februar": 6928,
  "lös": 6929,
  "▁dager": 6930,
  "ningst": 6931,
  "▁higher": 6932,
  "HO": 6933,
  "ocket": 6934,
  "▁käns": 6935,
  "Or": 6936,
  "▁pie": 6937,
  "skl": 6938,
  "asin": 6939,
  "▁Island": 6940,
  "ukt": 6941,
  "▁sådana": 6942,
  "iks": 6943,
  "▁diffic": 6944,
  "ATE": 6945,
  "col": 6946,
  "▁coll": 6947,
  "▁klok": 6948,
  "▁Tyskland": 6949,
  "▁April": 6950,
  "▁sus": 6951,
  "▁official": 6952,
  "▁ålder": 6953,
  "elskab": 6954,
  "oe": 6955,
  "▁Ven": 6956,
  "▁demokrat": 6957,
  "▁uddann": 6958,
  "hib": 6959,
  "MA": 6960,
  "▁Mel": 6961,
  "▁vise": 6962,
  "content": 6963,
  "▁hjemmes": 6964,
  "find": 6965,
  "ús": 6966,
  "▁Oct": 6967,
  "▁lib": 6968,
  "bör": 6969,
  "ancer": 6970,
  "▁cool": 6971,
  "$,": 6972,
  "▁Ísl": 6973,
  "▁forbed": 6974,
  "▁groups": 6975,
  "▁percent": 6976,
  "▁grupper": 6977,
  "dags": 6978,
  "förande": 6979,
  "change": 6980,
  "▁smak": 6981,
  "▁sommar": 6982,
  "▁köra": 6983,
  "▁Israel": 6984,
  "▁synd": 6985,
  "nMin": 6986,
  "char": 6987,
  "▁regard": 6988,
  "▁political": 6989,
  "Of": 6990,
  "▁resultatet": 6991,
  "dj": 6992,
  "annen": 6993,
  "▁copy": 6994,
  "▁implement": 6995,
  "▁anti": 6996,
  "atory": 6997,
  "▁Ap": 6998,
  "▁difficult": 6999,
  "akes": 7000,
  "ometer": 7001,
  "▁lös": 7002,
  "▁map": 7003,
  "ransport": 7004,
  "▁ganger": 7005,
  "▁spring": 7006,
  "hem": 7007,
  "▁oplysninger": 7008,
  "▁raise": 7009,
  "tidig": 7010,
  "ksis": 7011,
  "▁exc": 7012,
  "▁pull": 7013,
  "▁eit": 7014,
  "skud": 7015,
  "▁verkt": 7016,
  ",-": 7017,
  "▁profil": 7018,
  "▁leva": 7019,
  "▁ih": 7020,
  "▁täv": 7021,
  "onen": 7022,
  "▁måneder": 7023,
  "▁aktivitet": 7024,
  "▁Thomas": 7025,
  "▁sociala": 7026,
  "chie": 7027,
  "itution": 7028,
  "erte": 7029,
  "▁provided": 7030,
  "▁fået": 7031,
  "nst": 7032,
  "skil": 7033,
  "ging": 7034,
  "betal": 7035,
  "ratis": 7036,
  "▁fuck": 7037,
  "▁innehåller": 7038,
  "▁våg": 7039,
  "skydd": 7040,
  "▁Sør": 7041,
  "▁leave": 7042,
  "▁tänkte": 7043,
  "kur": 7044,
  "▁nice": 7045,
  "▁trodde": 7046,
  "▁intresse": 7047,
  "▁personlig": 7048,
  "Fra": 7049,
  "assertEqual": 7050,
  "nHot": 7051,
  "▁High": 7052,
  "issionen": 7053,
  "▁størr": 7054,
  "▁skönt": 7055,
  "▁torsdag": 7056,
  "▁eins": 7057,
  "hopp": 7058,
  "sole": 7059,
  "itz": 7060,
  "▁rej": 7061,
  "▁beroende": 7062,
  "▁meld": 7063,
  "fold": 7064,
  "▁SD": 7065,
  "lf": 7066,
  "▁finnas": 7067,
  "year": 7068,
  "otten": 7069,
  "FF": 7070,
  "verkan": 7071,
  "▁('": 7072,
  "eline": 7073,
  "icker": 7074,
  "▁Di": 7075,
  "▁hvilken": 7076,
  "▁hjælp": 7077,
  "nUnder": 7078,
  "▁disp": 7079,
  "▁September": 7080,
  "▁Disse": 7081,
  "▁wall": 7082,
  "▁hård": 7083,
  "▁skip": 7084,
  "▁shows": 7085,
  "!\"": 7086,
  "nHär": 7087,
  "deb": 7088,
  "▁lägger": 7089,
  "▁forl": 7090,
  "▁colum": 7091,
  "änner": 7092,
  "▁built": 7093,
  "▁henhold": 7094,
  "▁ran": 7095,
  "▁shopp": 7096,
  "nc": 7097,
  "ekn": 7098,
  "▁konkret": 7099,
  "▁säll": 7100,
  "▁/**\\": 7101,
  "▁Selv": 7102,
  "▁Bill": 7103,
  "gruppen": 7104,
  "▁princip": 7105,
  "Man": 7106,
  "▁ensam": 7107,
  "arbetare": 7108,
  "ince": 7109,
  "▁lower": 7110,
  "▁simply": 7111,
  "▁Norges": 7112,
  "▁ras": 7113,
  "useum": 7114,
  "nom": 7115,
  "refter": 7116,
  "agra": 7117,
  "nSam": 7118,
  "offer": 7119,
  "jum": 7120,
  "▁terror": 7121,
  "▁relativt": 7122,
  "▁„": 7123,
  "sprogram": 7124,
  "▁varm": 7125,
  "Test": 7126,
  "▁Supp": 7127,
  "rec": 7128,
  "▁løpet": 7129,
  "▁William": 7130,
  "ffa": 7131,
  "▁burde": 7132,
  "▁Gra": 7133,
  "▁annon": 7134,
  "ural": 7135,
  "▁magen": 7136,
  "▁international": 7137,
  "nav": 7138,
  "▁limit": 7139,
  "skont": 7140,
  "verage": 7141,
  "▁swe": 7142,
  "bert": 7143,
  "▁exempelvis": 7144,
  "▁poäng": 7145,
  "nEt": 7146,
  "▁Bol": 7147,
  "▁findes": 7148,
  "bur": 7149,
  "▁klock": 7150,
  "iful": 7151,
  "▁command": 7152,
  "bak": 7153,
  "indre": 7154,
  "ømme": 7155,
  "▁located": 7156,
  "orks": 7157,
  "▁språket": 7158,
  "▁prøve": 7159,
  "▁kjent": 7160,
  "▁saying": 7161,
  "allen": 7162,
  "▁tjejer": 7163,
  "▁\\\\[": 7164,
  "served": 7165,
  "ørdag": 7166,
  "▁mannen": 7167,
  "▁soon": 7168,
  "▁increase": 7169,
  "▁rädd": 7170,
  "▁elsk": 7171,
  "▁spännande": 7172,
  "▁tråden": 7173,
  "iance": 7174,
  "▁problems": 7175,
  "▁British": 7176,
  "▁färg": 7177,
  "▁vik": 7178,
  "ästa": 7179,
  "▁weight": 7180,
  "▁förslag": 7181,
  "▁Mat": 7182,
  "CC": 7183,
  "come": 7184,
  "har": 7185,
  "▁pappa": 7186,
  "▁looks": 7187,
  "ín": 7188,
  "tab": 7189,
  "▁!==": 7190,
  "▁frukt": 7191,
  "atform": 7192,
  "▁staten": 7193,
  "hot": 7194,
  "▁neste": 7195,
  "idge": 7196,
  "holde": 7197,
  "▁General": 7198,
  "▁population": 7199,
  "▁patienter": 7200,
  "NING": 7201,
  "▁uttal": 7202,
  "▁fat": 7203,
  "stone": 7204,
  "▁option": 7205,
  "▁cases": 7206,
  "▁Micro": 7207,
  "▁termin": 7208,
  "▁according": 7209,
  "▁Ikke": 7210,
  "▁doc": 7211,
  "▁publik": 7212,
  "▁Phil": 7213,
  "ribe": 7214,
  "barn": 7215,
  "arning": 7216,
  "▁speciellt": 7217,
  "▁coming": 7218,
  "Be": 7219,
  "▁rekommender": 7220,
  "▁dör": 7221,
  "▁bedöm": 7222,
  "link": 7223,
  "nReview": 7224,
  "▁offentlige": 7225,
  "▁town": 7226,
  "▁Stre": 7227,
  "nNår": 7228,
  "▁ör": 7229,
  "Mar": 7230,
  "ppar": 7231,
  "▁Lou": 7232,
  "▁anpass": 7233,
  "▁contain": 7234,
  "attr": 7235,
  "histor": 7236,
  "▁included": 7237,
  "▁Fig": 7238,
  "▁py": 7239,
  "▁dark": 7240,
  "down": 7241,
  "▁Hva": 7242,
  "rote": 7243,
  "verige": 7244,
  "AND": 7245,
  "acy": 7246,
  "ares": 7247,
  "▁chef": 7248,
  "point": 7249,
  "▁skrive": 7250,
  "▁elev": 7251,
  "öll": 7252,
  "instance": 7253,
  "▁Ans": 7254,
  "▁ledd": 7255,
  "▁network": 7256,
  "element": 7257,
  "▁egentlig": 7258,
  "▁instr": 7259,
  "▁sådant": 7260,
  "rask": 7261,
  "▁samhället": 7262,
  "▁nasjon": 7263,
  "▁februari": 7264,
  "fully": 7265,
  "▁brev": 7266,
  "»,": 7267,
  "äkring": 7268,
  "▁tillfäll": 7269,
  "tekt": 7270,
  "query": 7271,
  "▁upon": 7272,
  "▁Gar": 7273,
  "annel": 7274,
  "aging": 7275,
  "▁hope": 7276,
  "▁kapital": 7277,
  "▁round": 7278,
  "▁perfect": 7279,
  "write": 7280,
  "▁dvs": 7281,
  "▁fro": 7282,
  "▁nätet": 7283,
  "▁listen": 7284,
  "▁død": 7285,
  "▁invand": 7286,
  "▁Natur": 7287,
  "wise": 7288,
  "jóð": 7289,
  "famil": 7290,
  "CT": 7291,
  "uster": 7292,
  "▁names": 7293,
  "▁rekl": 7294,
  "▁Hotels": 7295,
  "▁helg": 7296,
  "▁voks": 7297,
  "▁låta": 7298,
  "iene": 7299,
  "▁därmed": 7300,
  "VER": 7301,
  "▁Now": 7302,
  "▁rut": 7303,
  "redit": 7304,
  "see": 7305,
  "▁deler": 7306,
  "klag": 7307,
  "▁oven": 7308,
  "innar": 7309,
  "▁fight": 7310,
  "▁undan": 7311,
  "▁följa": 7312,
  "▁radio": 7313,
  "▁behöva": 7314,
  "▁mix": 7315,
  "oven": 7316,
  "emed": 7317,
  "▁anses": 7318,
  "#\\": 7319,
  "▁masse": 7320,
  "iste": 7321,
  "nSo": 7322,
  "▁analysis": 7323,
  "▁utman": 7324,
  "ios": 7325,
  "▁rate": 7326,
  "fet": 7327,
  "▁conditions": 7328,
  "▁bereg": 7329,
  "▁Fol": 7330,
  "./": 7331,
  "▁Hal": 7332,
  "▁skade": 7333,
  "nin": 7334,
  "▁arbeidet": 7335,
  "æde": 7336,
  "unders": 7337,
  "amera": 7338,
  "▁Denna": 7339,
  "▁þeim": 7340,
  "ripAd": 7341,
  "▁affe": 7342,
  "avy": 7343,
  "▁muse": 7344,
  "▁Sedan": 7345,
  "▁hún": 7346,
  ",\\'": 7347,
  "▁kvinna": 7348,
  "ql": 7349,
  "▁considered": 7350,
  "avtal": 7351,
  "unni": 7352,
  "▁lämna": 7353,
  "bers": 7354,
  "/(-": 7355,
  "handler": 7356,
  "▁deep": 7357,
  "öl": 7358,
  "service": 7359,
  "grupp": 7360,
  "▁familjen": 7361,
  "vår": 7362,
  "▁syk": 7363,
  "▁...\\": 7364,
  "▁marked": 7365,
  "▁recommend": 7366,
  "uga": 7367,
  "▁{\\'": 7368,
  "▁tyvärr": 7369,
  "▁blom": 7370,
  "ising": 7371,
  "▁especially": 7372,
  "▁fab": 7373,
  "▁Ac": 7374,
  "********": 7375,
  "▁SK": 7376,
  "▁au": 7377,
  "rase": 7378,
  "emon": 7379,
  "▁nærmere": 7380,
  "▁slike": 7381,
  "▁augusti": 7382,
  "▁investering": 7383,
  "▁delta": 7384,
  "▁alene": 7385,
  "öld": 7386,
  "venske": 7387,
  "gener": 7388,
  "▁format": 7389,
  "Men": 7390,
  "klare": 7391,
  "▁nar": 7392,
  "orte": 7393,
  "▁uppt": 7394,
  "▁evid": 7395,
  "▁vold": 7396,
  "▁various": 7397,
  "▁kjem": 7398,
  "roy": 7399,
  "▁dersom": 7400,
  "Antag": 7401,
  "▁Aar": 7402,
  "▁sequ": 7403,
  "▁behövs": 7404,
  "▁Detaljer": 7405,
  "▁More": 7406,
  "gangspunkt": 7407,
  "onn": 7408,
  "rowser": 7409,
  "has": 7410,
  "▁arch": 7411,
  "eringen": 7412,
  "▁saa": 7413,
  "▁ellers": 7414,
  "▁touch": 7415,
  "ørs": 7416,
  "▁tillräck": 7417,
  "▁utveckla": 7418,
  "update": 7419,
  "▁treatment": 7420,
  "itions": 7421,
  "inge": 7422,
  "▁Kun": 7423,
  "▁centr": 7424,
  "▁Casino": 7425,
  "▁appar": 7426,
  "giver": 7427,
  "ahl": 7428,
  "▁difference": 7429,
  "▁placer": 7430,
  "▁forum": 7431,
  "värd": 7432,
  "▁particip": 7433,
  "▁individual": 7434,
  "▁writing": 7435,
  "▁Colle": 7436,
  "▁East": 7437,
  "▁force": 7438,
  "rið": 7439,
  "▁share": 7440,
  "▁Add": 7441,
  "▁Før": 7442,
  "▁tjej": 7443,
  "▁guys": 7444,
  "▁antag": 7445,
  "▁intens": 7446,
  "▁office": 7447,
  "pot": 7448,
  "▁ID": 7449,
  "nShe": 7450,
  "inister": 7451,
  "▁Rober": 7452,
  "▁overs": 7453,
  "▁production": 7454,
  "tta": 7455,
  "agg": 7456,
  "▁midler": 7457,
  "pace": 7458,
  "File": 7459,
  "ouncil": 7460,
  "▁bestemt": 7461,
  "▁brukes": 7462,
  "▁utro": 7463,
  "▁March": 7464,
  "][": 7465,
  "▁samlet": 7466,
  "stø": 7467,
  "▁begynd": 7468,
  "▁felles": 7469,
  "▁continue": 7470,
  "page": 7471,
  "▁beskriver": 7472,
  "lation": 7473,
  "▁application": 7474,
  "title": 7475,
  "ova": 7476,
  "],\\": 7477,
  "UP": 7478,
  "uttet": 7479,
  "mit": 7480,
  "inen": 7481,
  "sled": 7482,
  "ago": 7483,
  "▁fail": 7484,
  "▁pul": 7485,
  "ksamhet": 7486,
  "▁enbart": 7487,
  "▁gjen": 7488,
  ".__": 7489,
  "chan": 7490,
  "▁win": 7491,
  "▁hair": 7492,
  "▁stock": 7493,
  "▁stream": 7494,
  "▁Plan": 7495,
  "▁medel": 7496,
  "▁AP": 7497,
  "▁Jer": 7498,
  "▁føre": 7499,
  "▁hende": 7500,
  "▁inf": 7501,
  "▁mår": 7502,
  "▁Finn": 7503,
  "▁spesielt": 7504,
  "tekn": 7505,
  "iktet": 7506,
  "ripAdvisor": 7507,
  "dest": 7508,
  "▁stuff": 7509,
  "▁League": 7510,
  "▁attempt": 7511,
  "▁uppdater": 7512,
  "vnte": 7513,
  "open": 7514,
  "▁Fly": 7515,
  "ätta": 7516,
  "ileg": 7517,
  "nWhen": 7518,
  "▁December": 7519,
  "▁June": 7520,
  "▁Histor": 7521,
  "rarna": 7522,
  "▁perioden": 7523,
  "({": 7524,
  "▁birth": 7525,
  "more": 7526,
  "▁positivt": 7527,
  "▁Pris": 7528,
  "obj": 7529,
  "ho": 7530,
  "▁säkerhet": 7531,
  "▁tilgjeng": 7532,
  "=\\": 7533,
  "▁ensk": 7534,
  "▁Col": 7535,
  "▁poj": 7536,
  "ambda": 7537,
  "nAt": 7538,
  "▁mess": 7539,
  "▁November": 7540,
  "▁motiv": 7541,
  "▁hvem": 7542,
  "ierna": 7543,
  "▁step": 7544,
  "eler": 7545,
  "▁uppfatt": 7546,
  "filter": 7547,
  "▁focus": 7548,
  "dt": 7549,
  "ellig": 7550,
  "▁organisation": 7551,
  "TR": 7552,
  "▁användas": 7553,
  "sal": 7554,
  "▁dialog": 7555,
  "▁multiple": 7556,
  "aser": 7557,
  "øret": 7558,
  "íð": 7559,
  "nAnn": 7560,
  "▁guy": 7561,
  "▁teg": 7562,
  "conne": 7563,
  "▁tall": 7564,
  "▁skär": 7565,
  "▁Malmö": 7566,
  "▁Pal": 7567,
  "▁icke": 7568,
  "▁bevil": 7569,
  "▁eig": 7570,
  "▁forklar": 7571,
  "jl": 7572,
  "▁enten": 7573,
  "▁policy": 7574,
  "▁æ": 7575,
  "följ": 7576,
  "ught": 7577,
  "▁swedish": 7578,
  "▁…": 7579,
  "▁slutet": 7580,
  "nZ": 7581,
  "▁bygga": 7582,
  "▁weeks": 7583,
  "▁NOT": 7584,
  "▁sleep": 7585,
  "aktiv": 7586,
  "▁nödvänd": 7587,
  "▁natural": 7588,
  "▁oavsett": 7589,
  "▁träd": 7590,
  "ui": 7591,
  "SA": 7592,
  "▁Anders": 7593,
  "remove": 7594,
  "ningss": 7595,
  "▁released": 7596,
  "▁community": 7597,
  "▁perspektiv": 7598,
  "tex": 7599,
  "nTo": 7600,
  "▁forskjellige": 7601,
  "▁Bank": 7602,
  "▁hop": 7603,
  "▁worth": 7604,
  "▁French": 7605,
  "▁observ": 7606,
  "▁sitta": 7607,
  "▁kläder": 7608,
  "▁iaf": 7609,
  "▁decl": 7610,
  "ictor": 7611,
  "▁themselves": 7612,
  "▁cookies": 7613,
  "▁Folk": 7614,
  "▁era": 7615,
  "leder": 7616,
  "▁travel": 7617,
  "enes": 7618,
  "])": 7619,
  "skor": 7620,
  "▁varme": 7621,
  "▁Group": 7622,
  "▁🙂\\": 7623,
  "▁Beg": 7624,
  "▁thinking": 7625,
  "▁rette": 7626,
  "▁hear": 7627,
  "▁makt": 7628,
  "▁engine": 7629,
  "▁filmen": 7630,
  "dar": 7631,
  "anta": 7632,
  "▁berättar": 7633,
  "▁tjänster": 7634,
  "▁kvart": 7635,
  "ellan": 7636,
  "-,": 7637,
  "▁gjerne": 7638,
  "▁resa": 7639,
  "▁propos": 7640,
  "mær": 7641,
  "▁np": 7642,
  "asy": 7643,
  "▁$(": 7644,
  "▁undervis": 7645,
  "isere": 7646,
  "▁læg": 7647,
  "▁cut": 7648,
  "▁møte": 7649,
  ")/(-": 7650,
  "▁institution": 7651,
  "▁worked": 7652,
  "slä": 7653,
  "øst": 7654,
  "mot": 7655,
  "isme": 7656,
  "▁location": 7657,
  "entligt": 7658,
  "▁udvikling": 7659,
  "State": 7660,
  "▁Hvordan": 7661,
  "isera": 7662,
  "▁løn": 7663,
  "▁phone": 7664,
  "▁frisk": 7665,
  "▁Star": 7666,
  "ategory": 7667,
  "▁förr": 7668,
  "öf": 7669,
  "nVil": 7670,
  "\").": 7671,
  "join": 7672,
  "▁Mid": 7673,
  "▁borg": 7674,
  "stor": 7675,
  "▁Tom": 7676,
  "▁mai": 7677,
  "▁konstru": 7678,
  "▁related": 7679,
  "▁Dessutom": 7680,
  "eme": 7681,
  "bundet": 7682,
  "▁aspects": 7683,
  "holdet": 7684,
  "▁cancer": 7685,
  "▁demonstr": 7686,
  "haps": 7687,
  "▁Må": 7688,
  "▁inng": 7689,
  "▁regjer": 7690,
  "▁Ros": 7691,
  "▁retur": 7692,
  "nfunction": 7693,
  "▁historie": 7694,
  "▁parent": 7695,
  "▁spir": 7696,
  "▁Michael": 7697,
  "æði": 7698,
  "▁hjá": 7699,
  "▁tel": 7700,
  "aket": 7701,
  "edy": 7702,
  "▁läs": 7703,
  "▁update": 7704,
  "▁verður": 7705,
  "▁America": 7706,
  "▁achie": 7707,
  "▁recogn": 7708,
  "▁Syd": 7709,
  "▁København": 7710,
  "▁:-": 7711,
  "▁hjärt": 7712,
  "iveau": 7713,
  "▁Bus": 7714,
  "▁yrkes": 7715,
  "▁vert": 7716,
  "▁fælles": 7717,
  "▁medvet": 7718,
  "▁♥": 7719,
  "gren": 7720,
  "onom": 7721,
  "▁voru": 7722,
  "▁behav": 7723,
  "cting": 7724,
  "▁throw": 7725,
  "Phone": 7726,
  "igger": 7727,
  "▁compan": 7728,
  "▁blot": 7729,
  "▁betale": 7730,
  "gaard": 7731,
  "▁rights": 7732,
  "skudd": 7733,
  "▁främst": 7734,
  "▁selvfølgelig": 7735,
  "▁omf": 7736,
  "▁yourself": 7737,
  "nMy": 7738,
  "nað": 7739,
  "pool": 7740,
  "aland": 7741,
  "iers": 7742,
  "match": 7743,
  "▁lunch": 7744,
  "Ut": 7745,
  "▁meet": 7746,
  "▁yder": 7747,
  "angen": 7748,
  "nBe": 7749,
  "risk": 7750,
  "▁forward": 7751,
  "▁længere": 7752,
  "▁books": 7753,
  "atisk": 7754,
  "▁stabil": 7755,
  "▁url": 7756,
  "uffer": 7757,
  "current": 7758,
  "▁dele": 7759,
  "▁kompis": 7760,
  "▁protein": 7761,
  "▁ná": 7762,
  "▁sav": 7763,
  "nIs": 7764,
  "▁module": 7765,
  "nSen": 7766,
  "▁Kong": 7767,
  "▁types": 7768,
  "▁varer": 7769,
  "null": 7770,
  "länd": 7771,
  "▁sover": 7772,
  "▁lines": 7773,
  "▁sun": 7774,
  "▁funksjon": 7775,
  "▁dev": 7776,
  ")\\\\": 7777,
  "cr": 7778,
  "▁gammal": 7779,
  "▁member": 7780,
  "▁Far": 7781,
  "▁Math": 7782,
  "nEtt": 7783,
  "setter": 7784,
  "▁dejtings": 7785,
  "DF": 7786,
  "▁Sø": 7787,
  "core": 7788,
  "▁details": 7789,
  "▁erfaring": 7790,
  "ells": 7791,
  "tim": 7792,
  "ivity": 7793,
  "▁takes": 7794,
  "▁Kina": 7795,
  "▁stille": 7796,
  "spart": 7797,
  "stans": 7798,
  "▁pedagog": 7799,
  "▁paper": 7800,
  "cher": 7801,
  "▁somm": 7802,
  "nKan": 7803,
  "▁glöm": 7804,
  "åter": 7805,
  "inary": 7806,
  "izing": 7807,
  "▁betydning": 7808,
  "▁läst": 7809,
  "▁Max": 7810,
  "▁litter": 7811,
  "▁Maria": 7812,
  "itel": 7813,
  "▁gun": 7814,
  "▁helgen": 7815,
  "():\\": 7816,
  "▁couldn": 7817,
  "▁cause": 7818,
  "iri": 7819,
  "▁lenge": 7820,
  "AV": 7821,
  "▁features": 7822,
  "▁programmet": 7823,
  "context": 7824,
  "▁draw": 7825,
  "▁finan": 7826,
  "ota": 7827,
  "▁parts": 7828,
  "▁börjat": 7829,
  "ældre": 7830,
  "▁performance": 7831,
  "▁Apple": 7832,
  "▁students": 7833,
  "▁Ter": 7834,
  "▁fing": 7835,
  "▁President": 7836,
  "bred": 7837,
  "▁School": 7838,
  "ugin": 7839,
  "nAv": 7840,
  "▁bri": 7841,
  "ørte": 7842,
  "▁fry": 7843,
  "▁syg": 7844,
  "▁Internet": 7845,
  "▁basis": 7846,
  "▁äter": 7847,
  "▁viol": 7848,
  "▁internasjon": 7849,
  "▁moved": 7850,
  "▁vest": 7851,
  "▁kräver": 7852,
  "how": 7853,
  "▁Result": 7854,
  "TB": 7855,
  "ælder": 7856,
  "▁rock": 7857,
  "oken": 7858,
  "False": 7859,
  "▁ägg": 7860,
  "▁unga": 7861,
  "▁född": 7862,
  "▁fortsätter": 7863,
  ".$": 7864,
  "ano": 7865,
  "lyck": 7866,
  "enty": 7867,
  "kert": 7868,
  "ärer": 7869,
  "model": 7870,
  "▁omsorg": 7871,
  "osing": 7872,
  "▁solution": 7873,
  "fær": 7874,
  "skj": 7875,
  "nende": 7876,
  "lle": 7877,
  "▁Your": 7878,
  "▁OR": 7879,
  "▁bidrar": 7880,
  "nivå": 7881,
  "▁effects": 7882,
  "▁årene": 7883,
  "▁vanliga": 7884,
  "▁sammenlig": 7885,
  "▁feil": 7886,
  "($": 7887,
  "▁gik": 7888,
  "ensions": 7889,
  "▁expression": 7890,
  "▁anvend": 7891,
  "▁solid": 7892,
  "olume": 7893,
  "▁hin": 7894,
  "▁facil": 7895,
  "▁slow": 7896,
  "▁vinn": 7897,
  "▁ferie": 7898,
  "ønne": 7899,
  "tv": 7900,
  "lunda": 7901,
  "▁Acc": 7902,
  ":-": 7903,
  "▁IF": 7904,
  "jet": 7905,
  "▁tänkt": 7906,
  "nSp": 7907,
  "▁sten": 7908,
  "▁brukt": 7909,
  "▁isol": 7910,
  "bare": 7911,
  "sättningar": 7912,
  "nNy": 7913,
  "▁klipp": 7914,
  "▁omdömen": 7915,
  "ville": 7916,
  "▁sætning": 7917,
  "▁søk": 7918,
  "▁published": 7919,
  "▁je": 7920,
  "óð": 7921,
  "ktivt": 7922,
  "▁Book": 7923,
  "pas": 7924,
  "▁räkn": 7925,
  "▁prepar": 7926,
  "tw": 7927,
  "ication": 7928,
  "▁mention": 7929,
  "øp": 7930,
  "oter": 7931,
  "▁studies": 7932,
  "▁news": 7933,
  "uds": 7934,
  "▁Cap": 7935,
  "▁reported": 7936,
  "▁pil": 7937,
  "ooth": 7938,
  "▁Union": 7939,
  "▁boken": 7940,
  "▁Swed": 7941,
  "skola": 7942,
  "▁morning": 7943,
  "SB": 7944,
  "▁January": 7945,
  "vey": 7946,
  "▁kontor": 7947,
  "▁manu": 7948,
  "▁CO": 7949,
  "▁hjælpe": 7950,
  "aces": 7951,
  "stu": 7952,
  "▁July": 7953,
  "push": 7954,
  "ranger": 7955,
  "▁Vir": 7956,
  "▁nærheten": 7957,
  "▁Bes": 7958,
  "▁named": 7959,
  "▁levels": 7960,
  "bi": 7961,
  "▁Kanske": 7962,
  "▁vegna": 7963,
  "abled": 7964,
  "▁wife": 7965,
  "▁dise": 7966,
  "bal": 7967,
  "▁na": 7968,
  "▁karakter": 7969,
  "DR": 7970,
  "ummer": 7971,
  "▁areas": 7972,
  "▁transp": 7973,
  "ocker": 7974,
  "▁möjligheter": 7975,
  "▁Veg": 7976,
  "▁grän": 7977,
  "request": 7978,
  "▁IP": 7979,
  "▁movie": 7980,
  "göra": 7981,
  "▁religion": 7982,
  "\\\\\\": 7983,
  "▁PR": 7984,
  "▁muslim": 7985,
  "iets": 7986,
  "App": 7987,
  "lingar": 7988,
  "itude": 7989,
  "▁skapar": 7990,
  "nUt": 7991,
  "uid": 7992,
  "▁båt": 7993,
  "▁Public": 7994,
  "rup": 7995,
  "▁dröm": 7996,
  "▁foreld": 7997,
  "ligh": 7998,
  "idget": 7999,
  "▁prevent": 8000,
  "▁öka": 8001,
  "ställa": 8002,
  "▁Vår": 8003,
  "▁moder": 8004,
  "IST": 8005,
  "▁övriga": 8006,
  "▁sånt": 8007,
  "istent": 8008,
  "rettet": 8009,
  "▁hér": 8010,
  "▁thre": 8011,
  "▁områden": 8012,
  "▁shown": 8013,
  "▁analyser": 8014,
  "ikten": 8015,
  "▁born": 8016,
  "nam": 8017,
  "elly": 8018,
  "▁stäng": 8019,
  "aper": 8020,
  "sek": 8021,
  "Path": 8022,
  "▁wouldn": 8023,
  "▁begräns": 8024,
  "nInd": 8025,
  "afe": 8026,
  "▁Febru": 8027,
  "nUpp": 8028,
  "ounds": 8029,
  "jørn": 8030,
  "▁\\'\\'": 8031,
  "▁uttryck": 8032,
  "const": 8033,
  "▁legge": 8034,
  "▁spelare": 8035,
  "departementet": 8036,
  "▁gives": 8037,
  "▁Fri": 8038,
  "'\\": 8039,
  "▁Out": 8040,
  "method": 8041,
  "fram": 8042,
  "▁reading": 8043,
  "▁vinna": 8044,
  "▁Bas": 8045,
  "inte": 8046,
  "▁models": 8047,
  "pected": 8048,
  "ceed": 8049,
  "▁lyst": 8050,
  "lang": 8051,
  "▁player": 8052,
  "▁anven": 8053,
  "▁Finland": 8054,
  "▁herunder": 8055,
  "kg": 8056,
  "▁kop": 8057,
  "oyal": 8058,
  "▁sve": 8059,
  "▁lör": 8060,
  "icles": 8061,
  "▁Com": 8062,
  "▁middag": 8063,
  "▁prefer": 8064,
  "▁ult": 8065,
  "▁skor": 8066,
  "▁frivil": 8067,
  "mynd": 8068,
  "▁playing": 8069,
  "ilder": 8070,
  "clud": 8071,
  "rasjon": 8072,
  "▁Rich": 8073,
  "Not": 8074,
  "obal": 8075,
  "▁centrum": 8076,
  "sköter": 8077,
  "show": 8078,
  "unction": 8079,
  "▁penger": 8080,
  "▁tidspunkt": 8081,
  "▁necessary": 8082,
  "▁becom": 8083,
  "▁elektron": 8084,
  "▁phrase": 8085,
  "kvæm": 8086,
  "▁tilfælde": 8087,
  "▁enhver": 8088,
  "▁garanter": 8089,
  "▁ress": 8090,
  "▁enorm": 8091,
  "▁bund": 8092,
  "▁tilbyder": 8093,
  "▁Street": 8094,
  "▁visade": 8095,
  "vnt": 8096,
  "▁brans": 8097,
  "▁investig": 8098,
  "▁Po": 8099,
  "riminal": 8100,
  "▁dress": 8101,
  "▁ifølge": 8102,
  "pose": 8103,
  "nLe": 8104,
  "Un": 8105,
  "\">\\": 8106,
  "▁einn": 8107,
  "▁October": 8108,
  "kej": 8109,
  "▁issues": 8110,
  "ches": 8111,
  "SP": 8112,
  "▁Hus": 8113,
  "▁flex": 8114,
  "This": 8115,
  "urinn": 8116,
  "fyl": 8117,
  "▁hlut": 8118,
  "▁lack": 8119,
  "▁exakt": 8120,
  "▁comb": 8121,
  "bid": 8122,
  "eland": 8123,
  "▁fom": 8124,
  "▁ones": 8125,
  "▁Bry": 8126,
  "▁Char": 8127,
  "▁gammel": 8128,
  "image": 8129,
  "tainer": 8130,
  "▁gets": 8131,
  "phone": 8132,
  "nj": 8133,
  "▁Pri": 8134,
  "message": 8135,
  "▁grader": 8136,
  "▁security": 8137,
  "▁Hotell": 8138,
  "▁Who": 8139,
  "▁dans": 8140,
  "▁club": 8141,
  "▁flow": 8142,
  "▁lab": 8143,
  "▁Hann": 8144,
  "▁däremot": 8145,
  "▁drar": 8146,
  "öts": 8147,
  "▁närheten": 8148,
  "▁systems": 8149,
  "skraft": 8150,
  "▁Bed": 8151,
  "▁wish": 8152,
  "kommende": 8153,
  "▁rob": 8154,
  "▁Hels": 8155,
  "▁Lang": 8156,
  "ECT": 8157,
  "iny": 8158,
  "▁øy": 8159,
  "▁skrevet": 8160,
  "▁systemet": 8161,
  "▁comment": 8162,
  "igtige": 8163,
  "▁personen": 8164,
  "▁feed": 8165,
  "iki": 8166,
  "client": 8167,
  "asons": 8168,
  "▁voice": 8169,
  "▁producer": 8170,
  "▁forsø": 8171,
  "▁fill": 8172,
  "▁pool": 8173,
  "▁section": 8174,
  "pty": 8175,
  "▁[\\": 8176,
  "iting": 8177,
  "▁foreg": 8178,
  "ledningen": 8179,
  "god": 8180,
  "▁högt": 8181,
  "▁tend": 8182,
  "elsene": 8183,
  "ima": 8184,
  "valtning": 8185,
  "trä": 8186,
  "▁Liv": 8187,
  "▁teknik": 8188,
  "▁filter": 8189,
  "▁Try": 8190,
  "▁konkur": 8191,
  "▁billeder": 8192,
  "ello": 8193,
  "skr": 8194,
  "▁vänta": 8195,
  "omer": 8196,
  "▁slår": 8197,
  "▁illa": 8198,
  "▁hug": 8199,
  "▁praksis": 8200,
  "nTil": 8201,
  "▁Bir": 8202,
  "▁lärare": 8203,
  "oga": 8204,
  "[@": 8205,
  "ók": 8206,
  "▁prioriter": 8207,
  "erings": 8208,
  "▁virksomhed": 8209,
  "ören": 8210,
  "▁maskin": 8211,
  "▁complete": 8212,
  "hington": 8213,
  "▁Green": 8214,
  "▁fylkes": 8215,
  "▁företaget": 8216,
  "▁motsvar": 8217,
  "▁avoid": 8218,
  "▁James": 8219,
  "▁maybe": 8220,
  "▁chall": 8221,
  "▁fara": 8222,
  "▁stimul": 8223,
  "▁parents": 8224,
  "▁calcul": 8225,
  "delning": 8226,
  "▁skin": 8227,
  ").']": 8228,
  "▁ár": 8229,
  "jörn": 8230,
  "▁samarbet": 8231,
  "▁politiet": 8232,
  "▁ljud": 8233,
  "ored": 8234,
  "▁genomför": 8235,
  "▁currently": 8236,
  "▁otroligt": 8237,
  "▁First": 8238,
  "▁tidigt": 8239,
  "▁översätter": 8240,
  "wargs": 8241,
  "endte": 8242,
  "nPost": 8243,
  "Title": 8244,
  "ägen": 8245,
  "▁virker": 8246,
  "▁drink": 8247,
  "LA": 8248,
  "active": 8249,
  "ärefter": 8250,
  "icens": 8251,
  "▁kunnat": 8252,
  "▁forn": 8253,
  "▁toppen": 8254,
  "ename": 8255,
  "▁SP": 8256,
  "▁complex": 8257,
  "nDetta": 8258,
  "▁satte": 8259,
  "▁FR": 8260,
  "=\\\\": 8261,
  "▁frame": 8262,
  "▁kände": 8263,
  "▁sometimes": 8264,
  "ktions": 8265,
  "/(": 8266,
  "▁police": 8267,
  "▁undervisning": 8268,
  ",\\\\": 8269,
  "▁changed": 8270,
  "▁radi": 8271,
  "orry": 8272,
  "▁dubb": 8273,
  "▁fald": 8274,
  "rought": 8275,
  "▁legal": 8276,
  "▁vatt": 8277,
  "▁samarbete": 8278,
  "II": 8279,
  "▁dynam": 8280,
  "▁rekry": 8281,
  "▁prat": 8282,
  "▁relationship": 8283,
  "▁Pet": 8284,
  "hang": 8285,
  "▁bär": 8286,
  "▁hall": 8287,
  "▁random": 8288,
  "▁bekym": 8289,
  "▁utford": 8290,
  "atisf": 8291,
  "▁Dessa": 8292,
  "RK": 8293,
  "▁kunnskap": 8294,
  "▁stjór": 8295,
  "▁Kap": 8296,
  "▁UN": 8297,
  "▁root": 8298,
  "▁regeringen": 8299,
  "▁häm": 8300,
  "▁lit": 8301,
  "uses": 8302,
  "▁\\\\\\": 8303,
  "tatt": 8304,
  "▁dela": 8305,
  "BS": 8306,
  "delen": 8307,
  "▁fish": 8308,
  "▁tema": 8309,
  "▁venner": 8310,
  "ternal": 8311,
  "/*": 8312,
  "CK": 8313,
  "▁Sj": 8314,
  "ocol": 8315,
  "▁Famil": 8316,
  "▁regular": 8317,
  "ådan": 8318,
  "▁happy": 8319,
  "TV": 8320,
  "▁europe": 8321,
  "▁visste": 8322,
  "▁karri": 8323,
  "▁TS": 8324,
  "▁ena": 8325,
  "▁framtiden": 8326,
  "▁average": 8327,
  "▁operation": 8328,
  "kap": 8329,
  "lease": 8330,
  "imm": 8331,
  "▁betyr": 8332,
  "Til": 8333,
  "▁From": 8334,
  "▁immedi": 8335,
  "års": 8336,
  "▁couple": 8337,
  "▁försälj": 8338,
  "▁Ung": 8339,
  "▁deliver": 8340,
  "ston": 8341,
  "obby": 8342,
  "ughter": 8343,
  "▁guess": 8344,
  "json": 8345,
  "▁NULL": 8346,
  "cies": 8347,
  "hund": 8348,
  "▁hurtigt": 8349,
  "▁dårlig": 8350,
  "▁næste": 8351,
  "▁entire": 8352,
  "▁nesten": 8353,
  "target": 8354,
  "▁funkar": 8355,
  "▁client": 8356,
  "({\\": 8357,
  "▁världens": 8358,
  "▁bran": 8359,
  "nast": 8360,
  "▁Kont": 8361,
  "▁valgt": 8362,
  "▁jävla": 8363,
  "rak": 8364,
  "▁states": 8365,
  "holdt": 8366,
  "▁kok": 8367,
  "▁alone": 8368,
  "▁forest": 8369,
  "▁Kal": 8370,
  "▁completely": 8371,
  "▁temperatur": 8372,
  "▁nom": 8373,
  "▁klara": 8374,
  "▁proced": 8375,
  "▁summer": 8376,
  "skyld": 8377,
  "▁eksp": 8378,
  "doc": 8379,
  "stænd": 8380,
  "▁løsning": 8381,
  "▁konstater": 8382,
  "iere": 8383,
  "▁wrote": 8384,
  "rot": 8385,
  "▁Barn": 8386,
  "▁training": 8387,
  "entarer": 8388,
  "ärta": 8389,
  "▁betydelse": 8390,
  "▁kveld": 8391,
  "▁uppmär": 8392,
  "▁impa": 8393,
  "atalog": 8394,
  "▁dokumenter": 8395,
  "▁utdan": 8396,
  "holms": 8397,
  "▁Hj": 8398,
  "ismen": 8399,
  "▁hast": 8400,
  "isst": 8401,
  "▁condition": 8402,
  "true": 8403,
  "ums": 8404,
  "burg": 8405,
  "▁pratar": 8406,
  "▁liber": 8407,
  "▁signal": 8408,
  "ampions": 8409,
  "▁/*": 8410,
  "iteen": 8411,
  "▁err": 8412,
  "▁anmäl": 8413,
  "▁Beach": 8414,
  "rie": 8415,
  "iður": 8416,
  "▁marker": 8417,
  "levelser": 8418,
  "▁lämp": 8419,
  "TH": 8420,
  "');\\": 8421,
  "sins": 8422,
  "▁Id": 8423,
  "▁effort": 8424,
  "regler": 8425,
  "▁gruppen": 8426,
  "car": 8427,
  "▁virksomheder": 8428,
  "then": 8429,
  "Fig": 8430,
  "child": 8431,
  "deren": 8432,
  "engt": 8433,
  ".-": 8434,
  "▁almind": 8435,
  "emm": 8436,
  "▁note": 8437,
  "▁myndighet": 8438,
  "jekk": 8439,
  "▁befin": 8440,
  "▁sette": 8441,
  "aft": 8442,
  "aði": 8443,
  "▁species": 8444,
  "▁Log": 8445,
  "odd": 8446,
  "grupper": 8447,
  "alpha": 8448,
  "▁Jac": 8449,
  "▁klin": 8450,
  "▁ways": 8451,
  "▁agg": 8452,
  "▁height": 8453,
  "▁>>": 8454,
  "▁dan": 8455,
  "▁setning": 8456,
  "▁Act": 8457,
  "▁biblio": 8458,
  "''": 8459,
  "▁definition": 8460,
  "number": 8461,
  "▁økonomiske": 8462,
  "BC": 8463,
  "▁købe": 8464,
  "rige": 8465,
  "▁Ord": 8466,
  "now": 8467,
  "▁grö": 8468,
  "skade": 8469,
  "▁Cour": 8470,
  "▁Fj": 8471,
  "king": 8472,
  "▁Hvad": 8473,
  "Form": 8474,
  "▁active": 8475,
  "▁likevel": 8476,
  "▁management": 8477,
  "▁register": 8478,
  "park": 8479,
  "▁road": 8480,
  "▁kredit": 8481,
  "▁Web": 8482,
  "▁respektive": 8483,
  "▁lærer": 8484,
  "ria": 8485,
  "nÖ": 8486,
  "álf": 8487,
  "▁Hej": 8488,
  "▁tank": 8489,
  "▁Press": 8490,
  "▁rull": 8491,
  "▁holdt": 8492,
  "Hand": 8493,
  "▁bilden": 8494,
  "▁fair": 8495,
  "eles": 8496,
  "▁mal": 8497,
  "▁Commission": 8498,
  "▁structure": 8499,
  "gjort": 8500,
  "gården": 8501,
  "▁derefter": 8502,
  "▁haven": 8503,
  "▁lat": 8504,
  "▁Fal": 8505,
  "▁titta": 8506,
  "color": 8507,
  "nede": 8508,
  "▁politisk": 8509,
  "▁frequ": 8510,
  "▁tolk": 8511,
  "▁tilgang": 8512,
  "▁ökar": 8513,
  "▁Bay": 8514,
  "▁Camp": 8515,
  "▁fød": 8516,
  "▁switch": 8517,
  "▁tider": 8518,
  "▁vurdering": 8519,
  "ady": 8520,
  ".\\'\\": 8521,
  "EB": 8522,
  "ønn": 8523,
  "▁paragrafen": 8524,
  "akke": 8525,
  "osis": 8526,
  "▁~": 8527,
  "▁vigtigt": 8528,
  "▁uans": 8529,
  "▁forteller": 8530,
  "▁hört": 8531,
  "tas": 8532,
  "▁vacc": 8533,
  "▁semester": 8534,
  "▁fi": 8535,
  "▁interview": 8536,
  "▁berätta": 8537,
  "ptions": 8538,
  "▁remove": 8539,
  "”.\\": 8540,
  "▁formål": 8541,
  "CA": 8542,
  "▁discover": 8543,
  "platsen": 8544,
  "▁described": 8545,
  "▁økt": 8546,
  "ti": 8547,
  "▁ansökan": 8548,
  "▁hygg": 8549,
  "▁Ve": 8550,
  "iforn": 8551,
  "▁Genom": 8552,
  "▁öppna": 8553,
  "▁?\\": 8554,
  "nde": 8555,
  "ili": 8556,
  "▁konto": 8557,
  "▁died": 8558,
  "▁utför": 8559,
  "▁kompetens": 8560,
  "partiet": 8561,
  "▁moderne": 8562,
  "▁rapport": 8563,
  "▁lättare": 8564,
  "nÞ": 8565,
  "bold": 8566,
  "▁args": 8567,
  "▁testa": 8568,
  "▁upplev": 8569,
  "Up": 8570,
  "verse": 8571,
  "lå": 8572,
  "▁Mange": 8573,
  "▁erk": 8574,
  "DA": 8575,
  "▁Få": 8576,
  "><": 8577,
  "▁chance": 8578,
  "▁förmåga": 8579,
  "jpg": 8580,
  "▁besø": 8581,
  "▁apply": 8582,
  "iana": 8583,
  "arnas": 8584,
  "▁callback": 8585,
  "▁tilsvar": 8586,
  "▁goes": 8587,
  "▁flykt": 8588,
  "▁motiver": 8589,
  "hjem": 8590,
  "▁gymnas": 8591,
  "fors": 8592,
  "▁query": 8593,
  "▁save": 8594,
  "▁kat": 8595,
  "ALU": 8596,
  "bruks": 8597,
  "essen": 8598,
  "itte": 8599,
  "▁items": 8600,
  "Set": 8601,
  "▁Ju": 8602,
  "ærke": 8603,
  "▁resultater": 8604,
  "▁áh": 8605,
  "▁styrke": 8606,
  "▁Get": 8607,
  "▁please": 8608,
  "uer": 8609,
  "▁träning": 8610,
  "leks": 8611,
  "▁kyr": 8612,
  "▁knowledge": 8613,
  "▁bull": 8614,
  "▁collection": 8615,
  "▁returned": 8616,
  "rc": 8617,
  "▁sova": 8618,
  "ae": 8619,
  "ued": 8620,
  "▁CD": 8621,
  "æder": 8622,
  "▁seemed": 8623,
  "▁['#": 8624,
  "▁kommunikation": 8625,
  "▁utform": 8626,
  "ttet": 8627,
  "▁trafik": 8628,
  "▁folket": 8629,
  "▁rík": 8630,
  "▁boy": 8631,
  "▁nedan": 8632,
  "▁utenfor": 8633,
  "ordningen": 8634,
  "▁kampen": 8635,
  "▁varmt": 8636,
  "▁cert": 8637,
  "▁plads": 8638,
  "endur": 8639,
  "▁Ener": 8640,
  "▁beställ": 8641,
  "CE": 8642,
  "▁prins": 8643,
  "▁ställa": 8644,
  "styrelsen": 8645,
  "▁progress": 8646,
  "▁faktorer": 8647,
  "lý": 8648,
  "KT": 8649,
  "▁føler": 8650,
  "▁opport": 8651,
  "▁initiativ": 8652,
  "IA": 8653,
  "▁kontrakt": 8654,
  "▁skolen": 8655,
  "▁decided": 8656,
  "▁passed": 8657,
  "▁gram": 8658,
  "▁þeirra": 8659,
  "▁høre": 8660,
  "▁VM": 8661,
  "▁iPhone": 8662,
  "▁frasen": 8663,
  "ís": 8664,
  "dus": 8665,
  "▁sluta": 8666,
  "▁Cam": 8667,
  "mo": 8668,
  "ongen": 8669,
  "▁framgång": 8670,
  "ält": 8671,
  "▁formul": 8672,
  "▁uts": 8673,
  "▁avseende": 8674,
  "tallet": 8675,
  "▁starter": 8676,
  "▁Vet": 8677,
  "▁AM": 8678,
  "▁Enligt": 8679,
  "▁viktiga": 8680,
  "▁elements": 8681,
  "attis": 8682,
  "▁bekv": 8683,
  "▁åtgärder": 8684,
  "models": 8685,
  "▁guld": 8686,
  "▁tillverk": 8687,
  "On": 8688,
  "onents": 8689,
  "earch": 8690,
  "▁Like": 8691,
  "▁Fer": 8692,
  "dens": 8693,
  "atever": 8694,
  "▁butik": 8695,
  "▁fod": 8696,
  "▁gjeld": 8697,
  "astro": 8698,
  "▁oil": 8699,
  "▁fysisk": 8700,
  "ANT": 8701,
  "värt": 8702,
  "komp": 8703,
  "▁assum": 8704,
  "nis": 8705,
  "▁syns": 8706,
  "pping": 8707,
  "nEl": 8708,
  "▁innenfor": 8709,
  "▁knyttet": 8710,
  "▁vælge": 8711,
  "▁jf": 8712,
  "cd": 8713,
  "Del": 8714,
  "▁lade": 8715,
  "▁medarbetare": 8716,
  "andre": 8717,
  "▁vänster": 8718,
  "ifest": 8719,
  "▁Van": 8720,
  "▁bete": 8721,
  "▁associated": 8722,
  "▁release": 8723,
  "php": 8724,
  "▁activity": 8725,
  "▁anmeld": 8726,
  "▁Online": 8727,
  "ipl": 8728,
  "ningene": 8729,
  "eah": 8730,
  "ivatan": 8731,
  "▁läser": 8732,
  "fisk": 8733,
  "▁career": 8734,
  "▁determin": 8735,
  "ORT": 8736,
  "vind": 8737,
  "▁jack": 8738,
  "▁Bergen": 8739,
  "▁flick": 8740,
  "▁Here": 8741,
  "sut": 8742,
  "irsdag": 8743,
  "▁litet": 8744,
  "▁Rem": 8745,
  "fart": 8746,
  "▁tum": 8747,
  "rivate": 8748,
  "ÖR": 8749,
  "▁rules": 8750,
  "▁kostar": 8751,
  "▁exactly": 8752,
  "▁åker": 8753,
  "▁leve": 8754,
  "parent": 8755,
  "▁Grand": 8756,
  "▁Trans": 8757,
  "▁hårt": 8758,
  "▁users": 8759,
  "▁minsta": 8760,
  "ólk": 8761,
  "nTack": 8762,
  "idence": 8763,
  "▁alldeles": 8764,
  "▁imag": 8765,
  "▁ráð": 8766,
  "▁tio": 8767,
  "▁skrivit": 8768,
  "▁virt": 8769,
  "▁Fre": 8770,
  "▁stick": 8771,
  "olve": 8772,
  "▁prest": 8773,
  "▁erhver": 8774,
  "▁Les": 8775,
  "▁tillräckligt": 8776,
  "▁strøm": 8777,
  "▁Mex": 8778,
  "▁forsknings": 8779,
  "▁White": 8780,
  "▁metoder": 8781,
  "span": 8782,
  "▁hurtig": 8783,
  "▁OG": 8784,
  "▁label": 8785,
  "▁BF": 8786,
  "▁undvik": 8787,
  "▁Ir": 8788,
  "ytter": 8789,
  "▁författ": 8790,
  "Date": 8791,
  "▁finally": 8792,
  "▁discuss": 8793,
  "▁bev": 8794,
  "▁Din": 8795,
  "istiska": 8796,
  "▁hälsa": 8797,
  "▁ligga": 8798,
  "iktig": 8799,
  "▁micro": 8800,
  "▁restaurant": 8801,
  "stö": 8802,
  "iced": 8803,
  "================": 8804,
  "▁org": 8805,
  "▁fører": 8806,
  "ecause": 8807,
  "▁epis": 8808,
  "ched": 8809,
  "source": 8810,
  "▁Därför": 8811,
  "Def": 8812,
  "▁kvinner": 8813,
  "▁sider": 8814,
  "▁rat": 8815,
  "ATION": 8816,
  ":']": 8817,
  "elsens": 8818,
  "▁sätter": 8819,
  "ypt": 8820,
  "**(-": 8821,
  "▁sannol": 8822,
  "▁gæ": 8823,
  "▁tydligt": 8824,
  "▁Data": 8825,
  "leve": 8826,
  "▁Find": 8827,
  "▁bog": 8828,
  "▁sagde": 8829,
  "▁søndag": 8830,
  "lægg": 8831,
  "▁avsnitt": 8832,
  "▁Hoppas": 8833,
  "ykker": 8834,
  "▁kid": 8835,
  "▁svara": 8836,
  "▁ingred": 8837,
  "vd": 8838,
  "▁påverkar": 8839,
  "▁korrekt": 8840,
  "▁overfor": 8841,
  "▁väntar": 8842,
  "ography": 8843,
  "splats": 8844,
  "▁jorden": 8845,
  "▁hind": 8846,
  "pros": 8847,
  "spe": 8848,
  "terar": 8849,
  "oding": 8850,
  "givare": 8851,
  "enny": 8852,
  "▁Freder": 8853,
  "!!!\\": 8854,
  "equal": 8855,
  "▁Finns": 8856,
  "ikring": 8857,
  "▁Span": 8858,
  "▁drik": 8859,
  "alj": 8860,
  "ibel": 8861,
  "▁TIL": 8862,
  "mathcal": 8863,
  "material": 8864,
  "▁historia": 8865,
  "▁kids": 8866,
  "▁pain": 8867,
  "sprung": 8868,
  "dict": 8869,
  "bf": 8870,
  "▁task": 8871,
  "▁Even": 8872,
  "SD": 8873,
  "▁companies": 8874,
  "oj": 8875,
  "▁script": 8876,
  "▁directly": 8877,
  "olden": 8878,
  "▁nettet": 8879,
  "▁Lar": 8880,
  "▁gud": 8881,
  "▁representer": 8882,
  "vt": 8883,
  "▁apo": 8884,
  "▁tänk": 8885,
  "▁decision": 8886,
  "▁quickly": 8887,
  "akta": 8888,
  "▁methods": 8889,
  "umin": 8890,
  "▁INTO": 8891,
  "▁tunn": 8892,
  "nhttps": 8893,
  "▁innlegg": 8894,
  "▁höga": 8895,
  "▁ordet": 8896,
  "▁TripAdvisor": 8897,
  "rd": 8898,
  "▁mj": 8899,
  "gency": 8900,
  "▁arriv": 8901,
  "▁plac": 8902,
  "nNo": 8903,
  "▁measure": 8904,
  "▁subst": 8905,
  "øte": 8906,
  "▁talking": 8907,
  "build": 8908,
  "▁målet": 8909,
  "▁dram": 8910,
  "▁samfun": 8911,
  "iqu": 8912,
  "▁forsvar": 8913,
  "root": 8914,
  "klara": 8915,
  "▁studenter": 8916,
  "▁speed": 8917,
  "▁contrib": 8918,
  "▁fá": 8919,
  "▁master": 8920,
  "▁Council": 8921,
  "▁spilleautom": 8922,
  "▁allowed": 8923,
  "▁veget": 8924,
  "▁independ": 8925,
  "▁century": 8926,
  "▁ång": 8927,
  "fields": 8928,
  "▁tand": 8929,
  "▁announ": 8930,
  "▁bakgrund": 8931,
  "▁kvinder": 8932,
  "▁Vär": 8933,
  ".)\\": 8934,
  "▁earl": 8935,
  "när": 8936,
  "▁daglig": 8937,
  "▁administ": 8938,
  "mand": 8939,
  "uman": 8940,
  "▁Museum": 8941,
  "img": 8942,
  "▁fam": 8943,
  "▁Service": 8944,
  ".:": 8945,
  "▁purch": 8946,
  "cert": 8947,
  "kun": 8948,
  "lings": 8949,
  "▁OS": 8950,
  "▁guide": 8951,
  "ningsvis": 8952,
  "skan": 8953,
  "▁feet": 8954,
  "styret": 8955,
  "rast": 8956,
  "kommun": 8957,
  "▁Free": 8958,
  "ua": 8959,
  "▁talar": 8960,
  "pm": 8961,
  "▁UK": 8962,
  "▁söka": 8963,
  "▁reda": 8964,
  "NO": 8965,
  "itation": 8966,
  "kade": 8967,
  "ðið": 8968,
  "▁Bon": 8969,
  "▁vag": 8970,
  "nAd": 8971,
  "▁surv": 8972,
  "▁Trom": 8973,
  "nHej": 8974,
  "HT": 8975,
  "aled": 8976,
  "ories": 8977,
  "▁experien": 8978,
  "▁såväl": 8979,
  "▁aren": 8980,
  "▁bruges": 8981,
  "▁cup": 8982,
  "▁tankar": 8983,
  "▁Washington": 8984,
  "▁auth": 8985,
  "nSwedish": 8986,
  "ymbol": 8987,
  "rika": 8988,
  "rummet": 8989,
  "scope": 8990,
  "▁Life": 8991,
  "▁impl": 8992,
  "hood": 8993,
  "▁stö": 8994,
  "oren": 8995,
  "▁midt": 8996,
  "nTill": 8997,
  "handel": 8998,
  "▁lyckas": 8999,
  "▁borger": 9000,
  "▁läkare": 9001,
  "▁vigtig": 9002,
  "▁connection": 9003,
  "▁France": 9004,
  "▁hed": 9005,
  "oted": 9006,
  "itute": 9007,
  "▁oblig": 9008,
  "▁odd": 9009,
  "abol": 9010,
  "▁eksister": 9011,
  "▁invester": 9012,
  "blogg": 9013,
  "▁illust": 9014,
  "▁minor": 9015,
  "▁jer": 9016,
  "▁obj": 9017,
  "admin": 9018,
  "nSvensk": 9019,
  "isse": 9020,
  "▁øk": 9021,
  "▁reserv": 9022,
  "æller": 9023,
  "▁indiv": 9024,
  "▁närmaste": 9025,
  "nEx": 9026,
  "▁Und": 9027,
  "▁værd": 9028,
  "rass": 9029,
  "inet": 9030,
  "hr": 9031,
  "ókn": 9032,
  "▁OF": 9033,
  "▁respond": 9034,
  "lines": 9035,
  "▁trade": 9036,
  "sky": 9037,
  "▁ul": 9038,
  "rick": 9039,
  "▁Mont": 9040,
  "(_": 9041,
  "▁nature": 9042,
  "gangen": 9043,
  "▁barns": 9044,
  "▁aktivt": 9045,
  "vän": 9046,
  "▁häls": 9047,
  "▁staff": 9048,
  "▁Where": 9049,
  "▁kjøpe": 9050,
  "▁modell": 9051,
  "▁green": 9052,
  "ync": 9053,
  "▁boende": 9054,
  "▁brought": 9055,
  "▁involved": 9056,
  "▁Idag": 9057,
  "▁spise": 9058,
  "My": 9059,
  "▁effektivt": 9060,
  "▁självklart": 9061,
  "annes": 9062,
  "ensioner": 9063,
  "igr": 9064,
  "▁tillhör": 9065,
  "▁væk": 9066,
  "supp": 9067,
  "▁medarbej": 9068,
  "▁email": 9069,
  "▁circ": 9070,
  "ART": 9071,
  "▁minimum": 9072,
  "Ident": 9073,
  "rör": 9074,
  "▁Tim": 9075,
  "▁utmär": 9076,
  "▁stället": 9077,
  "pæ": 9078,
  "flow": 9079,
  "▁Twitter": 9080,
  "▁Every": 9081,
  "main": 9082,
  "▁fungerer": 9083,
  "▁viste": 9084,
  "▁förvänt": 9085,
  "andt": 9086,
  "rypt": 9087,
  "▁Magn": 9088,
  "orlunda": 9089,
  "ultural": 9090,
  "Get": 9091,
  "fta": 9092,
  "▁egg": 9093,
  "▁sad": 9094,
  "▁Dig": 9095,
  "▁mas": 9096,
  "▁förhållande": 9097,
  "->": 9098,
  "▁shit": 9099,
  "▁Ford": 9100,
  "▁skjø": 9101,
  "delige": 9102,
  "▁Hoved": 9103,
  "bank": 9104,
  "▁Fram": 9105,
  "▁followed": 9106,
  "fag": 9107,
  "▁metod": 9108,
  "▁evidence": 9109,
  "▁Canada": 9110,
  "▁screen": 9111,
  "▁syfte": 9112,
  "vig": 9113,
  "▁choice": 9114,
  "▁NO": 9115,
  "repren": 9116,
  "▁leda": 9117,
  "▁Tror": 9118,
  "hy": 9119,
  "▁saman": 9120,
  "▁industry": 9121,
  "sim": 9122,
  "esis": 9123,
  "overs": 9124,
  "bane": 9125,
  "rafik": 9126,
  "▁compared": 9127,
  "▁redus": 9128,
  "▁næsten": 9129,
  "enta": 9130,
  "▁desember": 9131,
  "▁vs": 9132,
  "▁lørdag": 9133,
  "▁skicka": 9134,
  "]{}": 9135,
  "▁deretter": 9136,
  "▁valt": 9137,
  "ESS": 9138,
  "▁Hem": 9139,
  "▁stjer": 9140,
  "▁utnytt": 9141,
  "▁Microsoft": 9142,
  "▁allra": 9143,
  "bú": 9144,
  "\\'),\\": 9145,
  "▁feng": 9146,
  "▁övrigt": 9147,
  "▁tve": 9148,
  "▁spænd": 9149,
  "aktion": 9150,
  "▁Good": 9151,
  "▁catch": 9152,
  "response": 9153,
  "▁leið": 9154,
  "nsyn": 9155,
  "nNej": 9156,
  "▁Rob": 9157,
  "▁Program": 9158,
  "▁interesse": 9159,
  "onting": 9160,
  "▁fiske": 9161,
  "issions": 9162,
  "Fi": 9163,
  "▁Vel": 9164,
  "▁sende": 9165,
  "gent": 9166,
  "▁occur": 9167,
  "plass": 9168,
  "skrifter": 9169,
  "▁elem": 9170,
  "▁contact": 9171,
  "▁frag": 9172,
  "▁säm": 9173,
  "▁platt": 9174,
  "▁trän": 9175,
  "▁nämligen": 9176,
  "mg": 9177,
  "▁Up": 9178,
  "▁antall": 9179,
  "▁mør": 9180,
  "▁undir": 9181,
  "slivet": 9182,
  "▁Matt": 9183,
  "...']": 9184,
  "▁ori": 9185,
  "▁military": 9186,
  "ersion": 9187,
  "sprocess": 9188,
  "▁beautiful": 9189,
  "Int": 9190,
  "må": 9191,
  "sområ": 9192,
  "▁byta": 9193,
  "RL": 9194,
  "===\\": 9195,
  "öja": 9196,
  "arp": 9197,
  "▁sån": 9198,
  "ré": 9199,
  "▁George": 9200,
  "▁vekt": 9201,
  "olean": 9202,
  "utveckling": 9203,
  "▁players": 9204,
  "otes": 9205,
  "▁Sub": 9206,
  "▁mindst": 9207,
  "▁söm": 9208,
  "▁planer": 9209,
  "▁fraser": 9210,
  "▁omgiv": 9211,
  "▁antalet": 9212,
  "▁vei": 9213,
  "kväll": 9214,
  "▁factor": 9215,
  "▁Maj": 9216,
  "▁width": 9217,
  "ropri": 9218,
  "▁vita": 9219,
  "▁legger": 9220,
  "(),": 9221,
  "▁fed": 9222,
  "ipe": 9223,
  "▁Robert": 9224,
  "▁uk": 9225,
  "▁Kommune": 9226,
  "vrige": 9227,
  "▁Många": 9228,
  "redning": 9229,
  "▁eat": 9230,
  "▁Pan": 9231,
  "▁toward": 9232,
  "ydro": 9233,
  "▁mång": 9234,
  "▁tala": 9235,
  "▁[\\'": 9236,
  "stift": 9237,
  "▁Kir": 9238,
  "▁capital": 9239,
  "▁udvalg": 9240,
  "istry": 9241,
  "▁reference": 9242,
  "▁pet": 9243,
  "cen": 9244,
  "fritt": 9245,
  "▁regering": 9246,
  "ældende": 9247,
  "ctors": 9248,
  "▁bound": 9249,
  "*(": 9250,
  "lare": 9251,
  "▁parkering": 9252,
  "Fil": 9253,
  "▁hemsida": 9254,
  "▁verksamheten": 9255,
  "norm": 9256,
  "hi": 9257,
  "sala": 9258,
  "▁Also": 9259,
  "▁numbers": 9260,
  "svis": 9261,
  "▁Øst": 9262,
  "film": 9263,
  "▁häst": 9264,
  "▁flytta": 9265,
  "▁Ur": 9266,
  "▁Við": 9267,
  "▁middle": 9268,
  "▁appl": 9269,
  "▁rot": 9270,
  "▁fjor": 9271,
  "fol": 9272,
  "miljö": 9273,
  "PO": 9274,
  "▁produksjon": 9275,
  "▁February": 9276,
  "▁iväg": 9277,
  "▁anställda": 9278,
  "▁FN": 9279,
  "▁dø": 9280,
  "option": 9281,
  "▁kille": 9282,
  "zen": 9283,
  "bjud": 9284,
  "▁whose": 9285,
  "kkelig": 9286,
  "samling": 9287,
  "izer": 9288,
  "▁IV": 9289,
  "▁County": 9290,
  "block": 9291,
  "▁konstigt": 9292,
  "sele": 9293,
  "blog": 9294,
  "▁Høy": 9295,
  "ritann": 9296,
  "karen": 9297,
  "▁seri": 9298,
  "▁Day": 9299,
  "▁skola": 9300,
  "well": 9301,
  "▁gruppe": 9302,
  "▁board": 9303,
  "▁von": 9304,
  "afé": 9305,
  "utor": 9306,
  "middag": 9307,
  "▁China": 9308,
  "}(": 9309,
  "▁blue": 9310,
  "▁gone": 9311,
  "▁Henrik": 9312,
  "▁någons": 9313,
  "▁periode": 9314,
  "▁ski": 9315,
  "edom": 9316,
  "acity": 9317,
  "▁tids": 9318,
  "▁vitt": 9319,
  "using": 9320,
  "▁Bud": 9321,
  "▁Side": 9322,
  "arbeidet": 9323,
  "▁marknaden": 9324,
  "▁vardag": 9325,
  "split": 9326,
  "▁aug": 9327,
  "▁device": 9328,
  "▁Øog": 9329,
  "▁klare": 9330,
  "▁rub": 9331,
  "kant": 9332,
  "▁lyd": 9333,
  "bad": 9334,
  "gir": 9335,
  "ollen": 9336,
  "▁arbejder": 9337,
  "\\'.": 9338,
  "▁øje": 9339,
  "▁bist": 9340,
  "▁poor": 9341,
  "▁mechan": 9342,
  "\\':\\": 9343,
  "▁barna": 9344,
  "amen": 9345,
  "▁omfatter": 9346,
  "▁huden": 9347,
  "▁AD": 9348,
  "▁gällande": 9349,
  "▁lives": 9350,
  "osa": 9351,
  "idan": 9352,
  "▁voksne": 9353,
  "▁þú": 9354,
  "nSh": 9355,
  "EX": 9356,
  "▁lá": 9357,
  "▁takt": 9358,
  "ountain": 9359,
  "ikkel": 9360,
  "vne": 9361,
  "▁vägg": 9362,
  "▁sæl": 9363,
  "▁restr": 9364,
  "▁värder": 9365,
  "unnit": 9366,
  "▁klarar": 9367,
  "▁ager": 9368,
  "utting": 9369,
  "ningsk": 9370,
  "▁lande": 9371,
  "▁Sweden": 9372,
  "▁lägg": 9373,
  "▁places": 9374,
  "▁litteratur": 9375,
  "rey": 9376,
  "▁skabe": 9377,
  "nTråd": 9378,
  "ifiera": 9379,
  "▁eleverna": 9380,
  "▁attention": 9381,
  "Inter": 9382,
  "▁smitt": 9383,
  "▁djup": 9384,
  "▁Lov": 9385,
  "▁tviv": 9386,
  "bolag": 9387,
  "▁uppe": 9388,
  "▁röst": 9389,
  "ibly": 9390,
  "▁lej": 9391,
  "clear": 9392,
  "▁havet": 9393,
  "win": 9394,
  "▁safe": 9395,
  "▁floor": 9396,
  "▁promen": 9397,
  "▁meaning": 9398,
  "▁þessu": 9399,
  "Add": 9400,
  "rande": 9401,
  "mund": 9402,
  "▁mulighet": 9403,
  "idden": 9404,
  "▁bú": 9405,
  "essig": 9406,
  "▁tilgjengelig": 9407,
  "▁equal": 9408,
  "▁THE": 9409,
  "▁köper": 9410,
  "▁bebis": 9411,
  "▁church": 9412,
  "▁vant": 9413,
  "stav": 9414,
  "lande": 9415,
  "known": 9416,
  "▁kandid": 9417,
  "uella": 9418,
  "▁handel": 9419,
  "tained": 9420,
  "nKon": 9421,
  "▁vuxna": 9422,
  "ægt": 9423,
  "▁constant": 9424,
  "KE": 9425,
  "ously": 9426,
  "▁tech": 9427,
  "▁netop": 9428,
  "okument": 9429,
  "▁kostnader": 9430,
  "▁render": 9431,
  "▁additional": 9432,
  "▁dålig": 9433,
  "▁hjelpe": 9434,
  "▁Inga": 9435,
  "▁viden": 9436,
  "If": 9437,
  "▁Sun": 9438,
  "medel": 9439,
  "▁click": 9440,
  "▁Ek": 9441,
  "▁paragrafer": 9442,
  "▁dream": 9443,
  "▁sundhed": 9444,
  "▁lavet": 9445,
  "]);\\": 9446,
  "▁pal": 9447,
  "▁yt": 9448,
  "▁although": 9449,
  "orbritann": 9450,
  "iling": 9451,
  "▁die": 9452,
  "rian": 9453,
  "▁ready": 9454,
  "▁elif": 9455,
  "▁concept": 9456,
  "▁kvällen": 9457,
  "▁((": 9458,
  "▁lange": 9459,
  "▁aften": 9460,
  "▁fields": 9461,
  "▁kallas": 9462,
  "ktet": 9463,
  "▁uns": 9464,
  "▁favorit": 9465,
  "▁vedr": 9466,
  "▁background": 9467,
  "▁samtliga": 9468,
  "dist": 9469,
  "▁nyhet": 9470,
  "parse": 9471,
  "▁properties": 9472,
  "▁landets": 9473,
  "▁condu": 9474,
  "▁kos": 9475,
  "▁recently": 9476,
  "SON": 9477,
  "ungen": 9478,
  "samt": 9479,
  "▁confir": 9480,
  "ammer": 9481,
  "enses": 9482,
  "▁tilh": 9483,
  "▁fjär": 9484,
  "uper": 9485,
  "AY": 9486,
  "▁ky": 9487,
  "▁surface": 9488,
  "▁feeling": 9489,
  "▁paint": 9490,
  "▁danish": 9491,
  "▁chok": 9492,
  "ado": 9493,
  "asta": 9494,
  "▁tæt": 9495,
  "▁snarare": 9496,
  "https": 9497,
  "▁Svar": 9498,
  "nif": 9499,
  "▁Anne": 9500,
  "▁mikro": 9501,
  "▁financial": 9502,
  "▁professional": 9503,
  "▁Wi": 9504,
  "▁coach": 9505,
  "▁hour": 9506,
  "▁therefore": 9507,
  "▁bedrift": 9508,
  "here": 9509,
  "tidigt": 9510,
  "▁opened": 9511,
  "▁Open": 9512,
  "▁klubb": 9513,
  "▁estim": 9514,
  "aktor": 9515,
  "▁haha": 9516,
  "▁økonomisk": 9517,
  "▁slipper": 9518,
  "zer": 9519,
  "▁politiske": 9520,
  "▁funn": 9521,
  "▁Sur": 9522,
  "▁muligheder": 9523,
  "▁unique": 9524,
  "▁south": 9525,
  "▁sommaren": 9526,
  "▁hendes": 9527,
  "▁[]\\": 9528,
  "▁mjöl": 9529,
  "▁towards": 9530,
  "output": 9531,
  "▁minska": 9532,
  "based": 9533,
  "ologiske": 9534,
  "ständigt": 9535,
  "▁oxå": 9536,
  "larna": 9537,
  "ibil": 9538,
  "▁cast": 9539,
  "▁Jose": 9540,
  "undet": 9541,
  "▁fotboll": 9542,
  "▁defined": 9543,
  "rome": 9544,
  "oser": 9545,
  "Count": 9546,
  "src": 9547,
  "Info": 9548,
  "clude": 9549,
  "▁Great": 9550,
  "▁adm": 9551,
  "ocal": 9552,
  "height": 9553,
  "▁comfort": 9554,
  "▁Trond": 9555,
  "▁tree": 9556,
  "mannen": 9557,
  "▁sambo": 9558,
  "▁Ext": 9559,
  "▁rolle": 9560,
  "ffee": 9561,
  "\":\"": 9562,
  "../": 9563,
  "▁Tot": 9564,
  "▁förlor": 9565,
  "▁distributed": 9566,
  "teket": 9567,
  "▁transfer": 9568,
  "▁ekonomiska": 9569,
  "▁Ry": 9570,
  "▁sendt": 9571,
  "snit": 9572,
  "▁elsker": 9573,
  "▁modeller": 9574,
  "▁Most": 9575,
  "▁north": 9576,
  "▁Daniel": 9577,
  "▁emer": 9578,
  "From": 9579,
  "▁öppen": 9580,
  "▁actual": 9581,
  "▁AR": 9582,
  "▁nerv": 9583,
  "▁syss": 9584,
  "▁practice": 9585,
  "▁jobbigt": 9586,
  "▁nöjd": 9587,
  "▁choose": 9588,
  "▁chans": 9589,
  "▁drabb": 9590,
  "▁dus": 9591,
  "lden": 9592,
  "▁distance": 9593,
  "▁stack": 9594,
  "▁Well": 9595,
  "alg": 9596,
  ")/(": 9597,
  "enomen": 9598,
  "▁ap": 9599,
  "si": 9600,
  "yret": 9601,
  "ølv": 9602,
  "▁platform": 9603,
  "exports": 9604,
  "▁Sport": 9605,
  "▁Fredrik": 9606,
  "▁infra": 9607,
  "▁nj": 9608,
  "▁villkor": 9609,
  "▁smer": 9610,
  "kkar": 9611,
  "▁stilling": 9612,
  "▁developed": 9613,
  "Supp": 9614,
  "rek": 9615,
  "▁upph": 9616,
  "utils": 9617,
  "▁ow": 9618,
  "▁polisen": 9619,
  "?\"\"\"\\": 9620,
  "▁påverk": 9621,
  "ðir": 9622,
  "cise": 9623,
  "▁Tel": 9624,
  "▁sla": 9625,
  "▁ves": 9626,
  "emy": 9627,
  "kkurat": 9628,
  "øse": 9629,
  "next": 9630,
  "elighed": 9631,
  "nden": 9632,
  "▁uke": 9633,
  "pop": 9634,
  "rate": 9635,
  "▁afgør": 9636,
  "▁arkite": 9637,
  "DER": 9638,
  "okal": 9639,
  "▁sår": 9640,
  "▁Kontakt": 9641,
  "▁wood": 9642,
  "▁andel": 9643,
  "▁increased": 9644,
  "onden": 9645,
  "▁button": 9646,
  "▁Frid": 9647,
  "▁försvar": 9648,
  "▁undersøg": 9649,
  "▁spent": 9650,
  "vokat": 9651,
  "▁ho": 9652,
  "▁uses": 9653,
  "▁perman": 9654,
  "Table": 9655,
  "nThey": 9656,
  "ammar": 9657,
  "Reg": 9658,
  "▁langs": 9659,
  "▁Miss": 9660,
  "fat": 9661,
  "talt": 9662,
  "dy": 9663,
  "ssam": 9664,
  "▁Bak": 9665,
  "▁arguments": 9666,
  "require": 9667,
  "ipped": 9668,
  "▁hotels": 9669,
  "nINS": 9670,
  "▁bostad": 9671,
  "▁favorite": 9672,
  "ALUES": 9673,
  "flo": 9674,
  "▁India": 9675,
  "▁bygget": 9676,
  "▁knappt": 9677,
  "▁campa": 9678,
  "▁produktion": 9679,
  "▁relevan": 9680,
  "▁Start": 9681,
  "▁diverse": 9682,
  "▁strength": 9683,
  "▁Charl": 9684,
  "▁machine": 9685,
  "▁samarbejde": 9686,
  "\\\\]": 9687,
  "▁prosjekt": 9688,
  "▁education": 9689,
  "▁physical": 9690,
  "ario": 9691,
  "▁figure": 9692,
  "▁brist": 9693,
  "▁gjord": 9694,
  "Hotell": 9695,
  "nKomm": 9696,
  "▁returns": 9697,
  "▁flag": 9698,
  "$$": 9699,
  "edenfor": 9700,
  "inum": 9701,
  "giften": 9702,
  "▁disapp": 9703,
  "▁Lo": 9704,
  "▁functions": 9705,
  "▁tvätt": 9706,
  "sep": 9707,
  "▁strå": 9708,
  "uell": 9709,
  "▁Vær": 9710,
  "▁Ok": 9711,
  "▁tour": 9712,
  "▁picture": 9713,
  "▁naturen": 9714,
  "▁hospital": 9715,
  "rine": 9716,
  "▁tjenester": 9717,
  "▁thread": 9718,
  "▁sikkerhed": 9719,
  "anen": 9720,
  "▁FAL": 9721,
  "önster": 9722,
  "▁höll": 9723,
  "▁Link": 9724,
  "instit": 9725,
  "▁ug": 9726,
  "▁Bur": 9727,
  "startaren": 9728,
  "laus": 9729,
  "▁neigh": 9730,
  "▁tidlig": 9731,
  "▁staden": 9732,
  "▁inner": 9733,
  "▁hantera": 9734,
  "åller": 9735,
  "sidan": 9736,
  "User": 9737,
  "▁tillämp": 9738,
  "▁arranger": 9739,
  "▁träffa": 9740,
  "ittee": 9741,
  "iday": 9742,
  "aner": 9743,
  "▁utvecklas": 9744,
  "▁funder": 9745,
  "isin": 9746,
  "▁projektet": 9747,
  "▁Tex": 9748,
  "▁rabatt": 9749,
  "▁stämmer": 9750,
  "▁reve": 9751,
  "▁easily": 9752,
  "▁Hå": 9753,
  "klass": 9754,
  "unnen": 9755,
  "▁LO": 9756,
  "▁pension": 9757,
  "nINSERT": 9758,
  "iest": 9759,
  "▁repe": 9760,
  "jun": 9761,
  "rich": 9762,
  "▁kne": 9763,
  "stedet": 9764,
  "▁undefined": 9765,
  "std": 9766,
  "▁böcker": 9767,
  "▁egenskaper": 9768,
  "▁Pass": 9769,
  "▁minister": 9770,
  "▁labor": 9771,
  "▁budsj": 9772,
  "jón": 9773,
  "ride": 9774,
  "okrater": 9775,
  "valitet": 9776,
  "slu": 9777,
  "nsv": 9778,
  "▁tip": 9779,
  "▁BM": 9780,
  "▁yngre": 9781,
  "\\']\\": 9782,
  "Eng": 9783,
  "▁underhåll": 9784,
  "cus": 9785,
  ")*(": 9786,
  "▁förstås": 9787,
  "▁Mu": 9788,
  "▁viktigaste": 9789,
  "▁Skulle": 9790,
  "▁offers": 9791,
  ")?\\": 9792,
  "▁öll": 9793,
  "urdere": 9794,
  "▁uppfyll": 9795,
  "uler": 9796,
  "▁HD": 9797,
  "▁indtil": 9798,
  "mad": 9799,
  "▁væri": 9800,
  "lights": 9801,
  "▁dollar": 9802,
  "eten": 9803,
  "pret": 9804,
  "▁secret": 9805,
  "områder": 9806,
  "▁amerikanske": 9807,
  "▁någonting": 9808,
  "▁sexual": 9809,
  "oma": 9810,
  "▁plock": 9811,
  "Model": 9812,
  "▁konsekvenser": 9813,
  "▁starting": 9814,
  "▁ställer": 9815,
  "▁människa": 9816,
  "house": 9817,
  "▁aller": 9818,
  "rende": 9819,
  "▁känsla": 9820,
  "▁race": 9821,
  "▁ude": 9822,
  "▁igennem": 9823,
  "▁lage": 9824,
  "óttir": 9825,
  "▁ekonomi": 9826,
  "rows": 9827,
  "mus": 9828,
  "▁kommenter": 9829,
  "værk": 9830,
  "▁fet": 9831,
  "▁lignende": 9832,
  "period": 9833,
  "▁personliga": 9834,
  "Size": 9835,
  "värder": 9836,
  "▁Event": 9837,
  "stend": 9838,
  "▁situationen": 9839,
  "nere": 9840,
  "▁jurid": 9841,
  "ental": 9842,
  "▁scient": 9843,
  "alls": 9844,
  "ftig": 9845,
  "icip": 9846,
  "▁growth": 9847,
  "▁technology": 9848,
  "################": 9849,
  "▁Oh": 9850,
  "▁Berlin": 9851,
  "▁anlegg": 9852,
  "▁förloss": 9853,
  "▁database": 9854,
  "▁Spa": 9855,
  "ikal": 9856,
  "▁syd": 9857,
  "SV": 9858,
  "nFin": 9859,
  "iti": 9860,
  "kj": 9861,
  "SL": 9862,
  ".»": 9863,
  "exp": 9864,
  "look": 9865,
  "▁que": 9866,
  "▁långa": 9867,
  "CO": 9868,
  "▁Mos": 9869,
  "▁Sing": 9870,
  "mag": 9871,
  "▁seiv": 9872,
  "apen": 9873,
  "asen": 9874,
  "▁Republic": 9875,
  "▁påstå": 9876,
  "▁især": 9877,
  "▁polis": 9878,
  "▁Kultur": 9879,
  "Code": 9880,
  "▁od": 9881,
  "▁lenger": 9882,
  "New": 9883,
  "▁Flor": 9884,
  "▁vetenskap": 9885,
  "▁kept": 9886,
  "▁sprid": 9887,
  "▁characters": 9888,
  "▁Bok": 9889,
  "TA": 9890,
  "▁bom": 9891,
  "▁koma": 9892,
  "OMM": 9893,
  "▁släpp": 9894,
  "▁served": 9895,
  "▁grand": 9896,
  "▁Rock": 9897,
  "▁adress": 9898,
  "ipping": 9899,
  "▁eth": 9900,
  "close": 9901,
  "▁straight": 9902,
  "▁decre": 9903,
  "▁entry": 9904,
  "ommet": 9905,
  "olumn": 9906,
  "åp": 9907,
  "ågan": 9908,
  "inks": 9909,
  "▁resul": 9910,
  "æst": 9911,
  "▁speak": 9912,
  "enset": 9913,
  "▁Mob": 9914,
  "▁thous": 9915,
  "oda": 9916,
  "fred": 9917,
  "vde": 9918,
  "Map": 9919,
  "▁AF": 9920,
  "udden": 9921,
  "ustu": 9922,
  "▁lägre": 9923,
  "▁þr": 9924,
  "▁skäl": 9925,
  "▁String": 9926,
  "driv": 9927,
  "▁fremtid": 9928,
  "sler": 9929,
  "▁mera": 9930,
  "▁borta": 9931,
  "▁moral": 9932,
  "▁instrument": 9933,
  "▁uppen": 9934,
  "årig": 9935,
  "▁Thanks": 9936,
  "▁Storbritann": 9937,
  "smark": 9938,
  "▁forsv": 9939,
  "nTrådstartaren": 9940,
  "▁River": 9941,
  "▁Que": 9942,
  "▁SM": 9943,
  "▁påpe": 9944,
  "gja": 9945,
  "▁lek": 9946,
  "Med": 9947,
  "born": 9948,
  "▁lid": 9949,
  "▁society": 9950,
  "▁vars": 9951,
  "▁closed": 9952,
  "${": 9953,
  "▁sej": 9954,
  "fact": 9955,
  "▁Nil": 9956,
  "talte": 9957,
  "▁fallet": 9958,
  "▁betrakt": 9959,
  "})": 9960,
  "▁læse": 9961,
  "öker": 9962,
  "nske": 9963,
  "▁carry": 9964,
  "▁trav": 9965,
  "▁showed": 9966,
  "??\\": 9967,
  "åring": 9968,
  "sikter": 9969,
  "▁reached": 9970,
  "grad": 9971,
  "ompl": 9972,
  "ikel": 9973,
  "▁Sov": 9974,
  "▁bos": 9975,
  "sey": 9976,
  "ULT": 9977,
  "▁spillet": 9978,
  "Vil": 9979,
  "kamp": 9980,
  "bill": 9981,
  "El": 9982,
  "isation": 9983,
  "▁succ": 9984,
  "tains": 9985,
  "▁Danska": 9986,
  "▁høyere": 9987,
  "ockey": 9988,
  "▁sterk": 9989,
  "jav": 9990,
  "▁upd": 9991,
  "formen": 9992,
  "▁EL": 9993,
  "älkommen": 9994,
  "▁åkte": 9995,
  "vari": 9996,
  "AA": 9997,
  "▁Business": 9998,
  "▁familien": 9999,
  "óp": 10000,
  "enten": 10001,
  "nv": 10002,
  "▁slog": 10003,
  "▁löp": 10004,
  "▁activities": 10005,
  "▁brugt": 10006,
  "▁samfund": 10007,
  "▁markeds": 10008,
  "skad": 10009,
  "With": 10010,
  "▁Gust": 10011,
  "▁column": 10012,
  "uly": 10013,
  "front": 10014,
  "gte": 10015,
  "smed": 10016,
  "utbildning": 10017,
  "▁designed": 10018,
  "delse": 10019,
  "▁Club": 10020,
  "▁historien": 10021,
  "▁populære": 10022,
  "▁effic": 10023,
  "ønt": 10024,
  "▁fug": 10025,
  "▁Android": 10026,
  "▁killed": 10027,
  "tc": 10028,
  "▁bloggen": 10029,
  "▁myndigheter": 10030,
  "rative": 10031,
  "▁köpte": 10032,
  "▁stanna": 10033,
  "▁erbjuda": 10034,
  "▁atm": 10035,
  "click": 10036,
  "▁huvudet": 10037,
  "▁Ra": 10038,
  "▁praktisk": 10039,
  "xml": 10040,
  "▁hjemmeside": 10041,
  "▁contains": 10042,
  "yond": 10043,
  "▁henn": 10044,
  "▁nærheden": 10045,
  "PT": 10046,
  "▁’": 10047,
  "esh": 10048,
  "rare": 10049,
  "▁FALSE": 10050,
  "▁rétt": 10051,
  "▁norwegian": 10052,
  "▁fett": 10053,
  "▁venn": 10054,
  "hengig": 10055,
  "▁metal": 10056,
  "▁thus": 10057,
  "▁factors": 10058,
  "▁flyt": 10059,
  "friend": 10060,
  "ætning": 10061,
  "▁sý": 10062,
  "▁helhet": 10063,
  "▁önskar": 10064,
  "ologiska": 10065,
  "▁memory": 10066,
  "remt": 10067,
  "ärare": 10068,
  "▁Class": 10069,
  "▁påverka": 10070,
  "▁solen": 10071,
  "ensor": 10072,
  "document": 10073,
  "▁Ark": 10074,
  "nIng": 10075,
  "▁Själv": 10076,
  "Best": 10077,
  "▁Region": 10078,
  "▁ändra": 10079,
  "▁spark": 10080,
  "esearch": 10081,
  "teck": 10082,
  "▁ship": 10083,
  "▁funktioner": 10084,
  "olde": 10085,
  "▁sikt": 10086,
  "▁ihåg": 10087,
  "▁Frankrike": 10088,
  "▁rolig": 10089,
  "▁lavere": 10090,
  "▁Grund": 10091,
  "▁obv": 10092,
  "▁distribution": 10093,
  "▁cykel": 10094,
  "▁massor": 10095,
  "▁Tan": 10096,
  "▁empty": 10097,
  "▁Kommentarer": 10098,
  "▁launch": 10099,
  "▁Central": 10100,
  "▁meant": 10101,
  "▁economic": 10102,
  "▁college": 10103,
  "▁beginning": 10104,
  "reci": 10105,
  "▁AND": 10106,
  "▁wid": 10107,
  "▁disease": 10108,
  "gets": 10109,
  "nJo": 10110,
  "skolen": 10111,
  "▁ideas": 10112,
  "▁någonsin": 10113,
  "▁stage": 10114,
  "▁kalla": 10115,
  "▁corresp": 10116,
  "As": 10117,
  "▁verði": 10118,
  "▁imorgon": 10119,
  "▁flott": 10120,
  "▁käll": 10121,
  "inav": 10122,
  "spir": 10123,
  "ributes": 10124,
  "ims": 10125,
  "▁Anal": 10126,
  "▁inspiration": 10127,
  "▁betydligt": 10128,
  "▁klockan": 10129,
  "▁ath": 10130,
  "▁quant": 10131,
  "nReg": 10132,
  "▁void": 10133,
  "▁tråk": 10134,
  "ställd": 10135,
  "forhold": 10136,
  "atively": 10137,
  "▁session": 10138,
  "øring": 10139,
  "▁delvis": 10140,
  "Sam": 10141,
  "▁professor": 10142,
  "rette": 10143,
  "▁utgör": 10144,
  "▁experiment": 10145,
  "---": 10146,
  "cles": 10147,
  "▁kunskaper": 10148,
  "▁tusen": 10149,
  "▁specif": 10150,
  "▁angre": 10151,
  "▁belig": 10152,
  "språk": 10153,
  "▁mænd": 10154,
  "▁double": 10155,
  "replace": 10156,
  "brott": 10157,
  "▁mut": 10158,
  "▁CON": 10159,
  "eringar": 10160,
  "utte": 10161,
  "▁markedet": 10162,
  "▁jaf": 10163,
  "▁util": 10164,
  "ding": 10165,
  "▁tilsvarende": 10166,
  "▁hjul": 10167,
  "▁såklart": 10168,
  "▁haf": 10169,
  "local": 10170,
  "▁bröst": 10171,
  "▁programmer": 10172,
  "sters": 10173,
  "▁mér": 10174,
  "ails": 10175,
  "▁mänsk": 10176,
  "▁faktum": 10177,
  "▁platser": 10178,
  "▁starkt": 10179,
  "VD": 10180,
  "stillinger": 10181,
  "▁strict": 10182,
  "▁vinner": 10183,
  "▁svenske": 10184,
  "▁Både": 10185,
  "icin": 10186,
  "▁ende": 10187,
  "gere": 10188,
  "nDenne": 10189,
  "▁diss": 10190,
  "▁funnet": 10191,
  "▁earlier": 10192,
  "ACK": 10193,
  "▁bolag": 10194,
  "▁delas": 10195,
  "izza": 10196,
  "▁endelig": 10197,
  "▁tjänst": 10198,
  "▁expand": 10199,
  "▁selected": 10200,
  "▁select": 10201,
  "At": 10202,
  "fix": 10203,
  "▁Other": 10204,
  "▁medical": 10205,
  "▁Ka": 10206,
  "Child": 10207,
  "▁culture": 10208,
  "▁generation": 10209,
  "ronic": 10210,
  "▁Hill": 10211,
  "▁Work": 10212,
  "▁leading": 10213,
  "tryk": 10214,
  "▁cru": 10215,
  "▁ferdig": 10216,
  "▁uge": 10217,
  "▁rig": 10218,
  "lambda": 10219,
  "QL": 10220,
  "▁skull": 10221,
  "Har": 10222,
  "abeth": 10223,
  "▁vilkår": 10224,
  "Pl": 10225,
  "▁ytt": 10226,
  "▁mjög": 10227,
  "▁sälj": 10228,
  "▁Hansen": 10229,
  "▁Victor": 10230,
  "▁modt": 10231,
  "lymp": 10232,
  "ären": 10233,
  "real": 10234,
  "▁ständ": 10235,
  "▁Eftersom": 10236,
  "▁assess": 10237,
  "▁lið": 10238,
  "▁Jacob": 10239,
  "▁ability": 10240,
  "▁Prem": 10241,
  "▁lanser": 10242,
  "▁Ca": 10243,
  "▁geng": 10244,
  "▁generelt": 10245,
  "nan": 10246,
  "▁forut": 10247,
  "▁Hade": 10248,
  "▁enhet": 10249,
  "▁established": 10250,
  "▁sug": 10251,
  "hånd": 10252,
  "sstater": 10253,
  "ency": 10254,
  "▁basic": 10255,
  "▁feature": 10256,
  "▁meeting": 10257,
  "▁revis": 10258,
  "▁hat": 10259,
  "ønd": 10260,
  "▁firma": 10261,
  "icated": 10262,
  "▁wind": 10263,
  "CR": 10264,
  "▁tilbyr": 10265,
  "▁vict": 10266,
  "nic": 10267,
  "▁intresserad": 10268,
  "ukk": 10269,
  "▁legit": 10270,
  "▁scale": 10271,
  "iftet": 10272,
  "▁redovis": 10273,
  "▁NY": 10274,
  "▁nut": 10275,
  "▁misstän": 10276,
  "ko": 10277,
  "template": 10278,
  "▁begrepp": 10279,
  "▁struct": 10280,
  "▁gælder": 10281,
  "ukke": 10282,
  "▁forel": 10283,
  "ellow": 10284,
  "▁velge": 10285,
  "▁fokuser": 10286,
  "Tra": 10287,
  "▁gif": 10288,
  "▁skyldes": 10289,
  "UD": 10290,
  "jas": 10291,
  "▁Prof": 10292,
  "▁useful": 10293,
  "adress": 10294,
  "▁broad": 10295,
  "▁vas": 10296,
  "▁Australia": 10297,
  "læring": 10298,
  "Säg": 10299,
  "kopp": 10300,
  "▁rød": 10301,
  "äcka": 10302,
  "▁Gam": 10303,
  "▁våren": 10304,
  "▁jakt": 10305,
  "Write": 10306,
  "Vis": 10307,
  "▁Rog": 10308,
  "▁løsninger": 10309,
  "▁mo": 10310,
  "▁Would": 10311,
  "▁vackra": 10312,
  "änning": 10313,
  "emi": 10314,
  "▁Church": 10315,
  "}^": 10316,
  "▁kilometer": 10317,
  "▁setting": 10318,
  "())\\": 10319,
  "▁reviews": 10320,
  "slös": 10321,
  "atus": 10322,
  "▁färd": 10323,
  "rl": 10324,
  "▁liges": 10325,
  "felt": 10326,
  "strateg": 10327,
  "▁Ring": 10328,
  "▁dobb": 10329,
  "▁olje": 10330,
  "▁download": 10331,
  "={": 10332,
  "▁Mand": 10333,
  "angel": 10334,
  "▁amaz": 10335,
  "▁Hav": 10336,
  "▁provides": 10337,
  "▁goal": 10338,
  "tit": 10339,
  "▁cold": 10340,
  "imately": 10341,
  "▁shot": 10342,
  "▁Dock": 10343,
  "▁Time": 10344,
  "▁skön": 10345,
  "▁tving": 10346,
  "yle": 10347,
  "budet": 10348,
  "Config": 10349,
  "▁Store": 10350,
  "folk": 10351,
  "▁udford": 10352,
  "▁horm": 10353,
  "CD": 10354,
  "abs": 10355,
  "▁aks": 10356,
  "▁Home": 10357,
  "▁ær": 10358,
  "▁levering": 10359,
  "▁þau": 10360,
  "▁Californ": 10361,
  "lication": 10362,
  "▁Kro": 10363,
  "▁stars": 10364,
  "▁Set": 10365,
  "edde": 10366,
  "▁linje": 10367,
  "▁images": 10368,
  "▁risiko": 10369,
  "▁Organ": 10370,
  "UB": 10371,
  "▁esc": 10372,
  "▁(\\": 10373,
  "▁dagarna": 10374,
  "▁drog": 10375,
  "mene": 10376,
  "▁avs": 10377,
  "▁senast": 10378,
  "▁ded": 10379,
  "▁Ram": 10380,
  "▁adv": 10381,
  "▁danska": 10382,
  "PE": 10383,
  "▁Cup": 10384,
  "ftar": 10385,
  "modligen": 10386,
  "▁wide": 10387,
  "▁grav": 10388,
  "▁Lib": 10389,
  "▁theory": 10390,
  "▁serie": 10391,
  "problem": 10392,
  "sland": 10393,
  "gas": 10394,
  "▁Top": 10395,
  "▁reng": 10396,
  "▁studien": 10397,
  "slutning": 10398,
  "inese": 10399,
  "▁shopping": 10400,
  "nThat": 10401,
  "itting": 10402,
  "▁People": 10403,
  "häl": 10404,
  "▁science": 10405,
  "▁Gratis": 10406,
  "▁fungera": 10407,
  "▁unit": 10408,
  "▁bekrä": 10409,
  "kjø": 10410,
  "register": 10411,
  "istik": 10412,
  "actions": 10413,
  "▁besl": 10414,
  "▁höst": 10415,
  "▁strand": 10416,
  "▁finish": 10417,
  "▁Italien": 10418,
  "▁tryck": 10419,
  "▁stål": 10420,
  "render": 10421,
  "hen": 10422,
  "▁hänt": 10423,
  "▁wants": 10424,
  "▁fritid": 10425,
  "▁List": 10426,
  "▁direktiv": 10427,
  "▁hers": 10428,
  "▁indeholder": 10429,
  "▁saknar": 10430,
  "▁Gör": 10431,
  "▁huge": 10432,
  "▁Office": 10433,
  "jel": 10434,
  "▁känslor": 10435,
  "▁Hy": 10436,
  "first": 10437,
  "arens": 10438,
  "givet": 10439,
  "tml": 10440,
  "oppet": 10441,
  "cin": 10442,
  "icken": 10443,
  "▁nyheter": 10444,
  "▁komfort": 10445,
  "▁settings": 10446,
  "ötsligt": 10447,
  "eden": 10448,
  "▁hvað": 10449,
  "minstone": 10450,
  "hæ": 10451,
  "AME": 10452,
  "▁räcker": 10453,
  "▁framåt": 10454,
  "▁köpt": 10455,
  "ji": 10456,
  "stolen": 10457,
  "iding": 10458,
  "forening": 10459,
  "▁exception": 10460,
  "ali": 10461,
  "▁gera": 10462,
  "▁Ped": 10463,
  "funn": 10464,
  "▁eitt": 10465,
  "▁antingen": 10466,
  "▁continued": 10467,
  "▁Ul": 10468,
  "▁sea": 10469,
  "hor": 10470,
  "▁android": 10471,
  "▁effekter": 10472,
  "▁vilde": 10473,
  "ligheder": 10474,
  "▁immediately": 10475,
  "sav": 10476,
  "▁appropri": 10477,
  "▁vurdere": 10478,
  "ublik": 10479,
  "nAlle": 10480,
  "æsent": 10481,
  "rets": 10482,
  "ädd": 10483,
  "▁ensure": 10484,
  "▁undersøk": 10485,
  "begin": 10486,
  "▁Universitet": 10487,
  "▁football": 10488,
  "▁stan": 10489,
  "ERE": 10490,
  "▁Bør": 10491,
  "▁fortæller": 10492,
  "▁annorlunda": 10493,
  "button": 10494,
  "▁description": 10495,
  "▁learning": 10496,
  "ussen": 10497,
  "nProdu": 10498,
  "▁Sar": 10499,
  "▁ansvaret": 10500,
  "▁ital": 10501,
  "▁score": 10502,
  "\\\\\\\\": 10503,
  "▁VALUES": 10504,
  "▁bade": 10505,
  "ningslin": 10506,
  "hind": 10507,
  "antic": 10508,
  "▁parti": 10509,
  "flyt": 10510,
  "ittel": 10511,
  "▁jätte": 10512,
  "HL": 10513,
  "▁Back": 10514,
  "▁alder": 10515,
  "▁jour": 10516,
  "cor": 10517,
  "rime": 10518,
  "▁kald": 10519,
  "▁},": 10520,
  "▁kärlek": 10521,
  "▁ru": 10522,
  "▁filmer": 10523,
  "▁console": 10524,
  "▁arbejds": 10525,
  "▁användning": 10526,
  "▁island": 10527,
  "▁intet": 10528,
  "▁reise": 10529,
  "▁stof": 10530,
  "▁tick": 10531,
  "Call": 10532,
  "nBl": 10533,
  "fill": 10534,
  "▁throughout": 10535,
  "▁tanken": 10536,
  "▁spillere": 10537,
  "▁Kat": 10538,
  "▁hä": 10539,
  "▁startet": 10540,
  "andard": 10541,
  "cat": 10542,
  "rupt": 10543,
  "▁chem": 10544,
  "▁statement": 10545,
  "▁Ze": 10546,
  "▁{\\\\": 10547,
  "vo": 10548,
  "▁mobile": 10549,
  "▁ges": 10550,
  "▁Norr": 10551,
  "▁Film": 10552,
  "▁besøg": 10553,
  "send": 10554,
  "maður": 10555,
  "▁dets": 10556,
  "!\"\\": 10557,
  "▁glem": 10558,
  "▁{#": 10559,
  "atives": 10560,
  "▁Yes": 10561,
  "▁Ren": 10562,
  "▁sant": 10563,
  "▁Fire": 10564,
  "nPublic": 10565,
  "▁whatever": 10566,
  "uit": 10567,
  "biner": 10568,
  "andinav": 10569,
  "løs": 10570,
  "▁giving": 10571,
  "▁direction": 10572,
  "▁lyder": 10573,
  "▁skje": 10574,
  "▁counter": 10575,
  "▁behandlingen": 10576,
  "▁Information": 10577,
  "▁befolkningen": 10578,
  "▁Son": 10579,
  "værd": 10580,
  "Ber": 10581,
  "▁Sve": 10582,
  "CL": 10583,
  "▁formid": 10584,
  "ktør": 10585,
  "▁SO": 10586,
  "platser": 10587,
  "vakt": 10588,
  "▁anvendes": 10589,
  "▁utrolig": 10590,
  "delar": 10591,
  "▁synt": 10592,
  "▁mangler": 10593,
  "asje": 10594,
  "song": 10595,
  "▁Vol": 10596,
  "▁Oper": 10597,
  "produkter": 10598,
  "▁størrelse": 10599,
  "____": 10600,
  "▁lokala": 10601,
  "ypes": 10602,
  "kwargs": 10603,
  "▁utvalg": 10604,
  "▁nyf": 10605,
  "backs": 10606,
  "▁avgör": 10607,
  "▁fyller": 10608,
  "▁una": 10609,
  "▁luck": 10610,
  "▁tillstånd": 10611,
  "▁Power": 10612,
  "▁sequence": 10613,
  "▁objects": 10614,
  "▁→": 10615,
  "▁höf": 10616,
  "reme": 10617,
  "▁fresh": 10618,
  "▁genomföra": 10619,
  "▁motion": 10620,
  "▁scene": 10621,
  "works": 10622,
  "▁lösa": 10623,
  "▁graph": 10624,
  "Dis": 10625,
  "köping": 10626,
  "▁divid": 10627,
  "▁transform": 10628,
  "▁failed": 10629,
  "▁Byg": 10630,
  "▁höger": 10631,
  "▁Helsing": 10632,
  "▁poly": 10633,
  "▁aktiver": 10634,
  "▁teknisk": 10635,
  "▁Bland": 10636,
  "vak": 10637,
  "▁Bod": 10638,
  "änna": 10639,
  "▁Guds": 10640,
  "▁drop": 10641,
  "eser": 10642,
  "ättning": 10643,
  "cs": 10644,
  "frame": 10645,
  "assa": 10646,
  "▁obtain": 10647,
  "ætti": 10648,
  "▁lurer": 10649,
  "▁rus": 10650,
  "dej": 10651,
  "▁mesta": 10652,
  "mask": 10653,
  "▁tus": 10654,
  "craft": 10655,
  "▁Söder": 10656,
  "▁brother": 10657,
  "▁rule": 10658,
  "ssp": 10659,
  "▁øvrige": 10660,
  "////": 10661,
  "NE": 10662,
  "▁gn": 10663,
  "▁jämfört": 10664,
  "▁gradu": 10665,
  "Off": 10666,
  "án": 10667,
  "▁þann": 10668,
  "▁Icelandic": 10669,
  "params": 10670,
  "yrelsen": 10671,
  "▁Soc": 10672,
  "▁TR": 10673,
  "▁purpose": 10674,
  "▁EM": 10675,
  "▁echo": 10676,
  "lagd": 10677,
  "▁includes": 10678,
  "▁løbet": 10679,
  "▁agree": 10680,
  "▁ønske": 10681,
  "▁Hög": 10682,
  "▁Tour": 10683,
  "css": 10684,
  "▁lan": 10685,
  "Service": 10686,
  "asure": 10687,
  "Request": 10688,
  "▁court": 10689,
  "▁boka": 10690,
  "▁Luc": 10691,
  "hall": 10692,
  "▁politiska": 10693,
  "install": 10694,
  "▁förutsättningar": 10695,
  "izes": 10696,
  "▁Islam": 10697,
  "▁Mary": 10698,
  "▁flash": 10699,
  "ifer": 10700,
  "IE": 10701,
  "ALL": 10702,
  "mån": 10703,
  "istiske": 10704,
  "▁produced": 10705,
  "ani": 10706,
  "?!": 10707,
  "▁While": 10708,
  "▁Kol": 10709,
  "ached": 10710,
  "▁minim": 10711,
  "ktig": 10712,
  "▁jobs": 10713,
  "▁Bara": 10714,
  "▁sagði": 10715,
  "▁hl": 10716,
  "acter": 10717,
  "▁ther": 10718,
  "select": 10719,
  "▁performed": 10720,
  "▁imponer": 10721,
  "essa": 10722,
  "▁venstre": 10723,
  "▁kob": 10724,
  "▁concent": 10725,
  "▁mennesk": 10726,
  "▁eier": 10727,
  "▁lagen": 10728,
  "▁Uppsala": 10729,
  "▁Ken": 10730,
  "här": 10731,
  "▁moving": 10732,
  "▁prøver": 10733,
  "▁particularly": 10734,
  "▁shape": 10735,
  "▁islam": 10736,
  "eted": 10737,
  "▁logg": 10738,
  "▁bio": 10739,
  "▁Stortinget": 10740,
  "▁hører": 10741,
  "▁^": 10742,
  "▁spenn": 10743,
  "ipper": 10744,
  "▁kjøp": 10745,
  "▁erfarenheter": 10746,
  "▁variable": 10747,
  "räff": 10748,
  "▁bow": 10749,
  "▁leaders": 10750,
  "Nedenfor": 10751,
  "▁Distr": 10752,
  "▁Py": 10753,
  "▁DKK": 10754,
  "icted": 10755,
  "▁Germany": 10756,
  "▁rank": 10757,
  "▁inntekt": 10758,
  "anned": 10759,
  "▁exer": 10760,
  "▁sorter": 10761,
  "▁häv": 10762,
  "kal": 10763,
  "▁Johns": 10764,
  "▁browser": 10765,
  "▁sidor": 10766,
  "iserade": 10767,
  "▁Vilket": 10768,
  "▁primary": 10769,
  "▁ryggen": 10770,
  "▁vedkommende": 10771,
  "ømmer": 10772,
  "▁departementet": 10773,
  "åne": 10774,
  "ults": 10775,
  "▁Does": 10776,
  "▁Lag": 10777,
  "AF": 10778,
  "▁femin": 10779,
  "▁Found": 10780,
  "▁længe": 10781,
  "sminister": 10782,
  "▁typen": 10783,
  "virksom": 10784,
  "stag": 10785,
  "▁endringer": 10786,
  "serve": 10787,
  "▁acqu": 10788,
  "vikt": 10789,
  "▁ideal": 10790,
  "oli": 10791,
  "setning": 10792,
  "skip": 10793,
  "▁strategi": 10794,
  "mathbb": 10795,
  "▁gal": 10796,
  "▁degree": 10797,
  "ying": 10798,
  "▁Stad": 10799,
  "syk": 10800,
  "▁Design": 10801,
  "▁asyl": 10802,
  "▁spur": 10803,
  "▁warm": 10804,
  "amentet": 10805,
  "▁opl": 10806,
  "skaber": 10807,
  "▁klimat": 10808,
  "▁numer": 10809,
  "Met": 10810,
  "▁border": 10811,
  "▁inse": 10812,
  "▁HT": 10813,
  "▁marts": 10814,
  "ocation": 10815,
  "▁barneh": 10816,
  "▁movement": 10817,
  "▁east": 10818,
  "▁''": 10819,
  "rapport": 10820,
  "onds": 10821,
  "rustning": 10822,
  "Comment": 10823,
  "▁Også": 10824,
  "▁fritt": 10825,
  "udover": 10826,
  "▁male": 10827,
  "▁överens": 10828,
  "ksjoner": 10829,
  "bygging": 10830,
  "terne": 10831,
  "kat": 10832,
  "▁:\\": 10833,
  "ech": 10834,
  "▁Cas": 10835,
  "▁medborg": 10836,
  "FOR": 10837,
  "▁comments": 10838,
  "▁AV": 10839,
  "uto": 10840,
  "▁klubben": 10841,
  "▁tjänsten": 10842,
  "▁jobber": 10843,
  "▁avgjør": 10844,
  "▁sammanhang": 10845,
  "▁${": 10846,
  "▁artist": 10847,
  "ifiser": 10848,
  "▁starte": 10849,
  "▁bottom": 10850,
  "▁forbru": 10851,
  "▁happens": 10852,
  "\\\\[": 10853,
  "gy": 10854,
  "atorer": 10855,
  "betaling": 10856,
  "▁samhälle": 10857,
  "sken": 10858,
  "▁fang": 10859,
  "central": 10860,
  "etic": 10861,
  "lass": 10862,
  "værelse": 10863,
  "▁compar": 10864,
  "ntry": 10865,
  "førte": 10866,
  "▁Ander": 10867,
  "▁mkt": 10868,
  "sloven": 10869,
  "Log": 10870,
  "▁sälja": 10871,
  "▁Ba": 10872,
  "nnor": 10873,
  "derne": 10874,
  "▁berör": 10875,
  "stäm": 10876,
  "▁manager": 10877,
  "▁idet": 10878,
  "▁selve": 10879,
  "▁tests": 10880,
  "▁Aud": 10881,
  "▁okkur": 10882,
  "cia": 10883,
  "uet": 10884,
  "lyst": 10885,
  "▁Jew": 10886,
  "▁Hell": 10887,
  "▁kvalitets": 10888,
  "▁golf": 10889,
  "▁Þetta": 10890,
  "▁handla": 10891,
  "▁administration": 10892,
  "▁allerg": 10893,
  "▁sou": 10894,
  "▁sætte": 10895,
  "esjon": 10896,
  "mode": 10897,
  "names": 10898,
  "▁Stockholms": 10899,
  "▁Our": 10900,
  "▁tis": 10901,
  "▁døde": 10902,
  "▁flat": 10903,
  "synet": 10904,
  "▁prisen": 10905,
  "▁Sven": 10906,
  "▁bath": 10907,
  "▁slight": 10908,
  "></": 10909,
  "▁wild": 10910,
  "▁medlemmar": 10911,
  "elin": 10912,
  "▁kontakta": 10913,
  "▁politiker": 10914,
  "▁parall": 10915,
  "jerg": 10916,
  "▁Since": 10917,
  "▁vedtak": 10918,
  "sw": 10919,
  "▁hous": 10920,
  "▁serien": 10921,
  "▁overrask": 10922,
  "▁Tem": 10923,
  "onder": 10924,
  "▁musikk": 10925,
  "▁Ga": 10926,
  "▁spor": 10927,
  "▁Departementet": 10928,
  "store": 10929,
  "▁mi": 10930,
  "▁veh": 10931,
  "nHvor": 10932,
  "jenester": 10933,
  "▁norska": 10934,
  "property": 10935,
  "▁jan": 10936,
  "▁Tekn": 10937,
  "▁sender": 10938,
  "▁förutom": 10939,
  "▁blomm": 10940,
  "▁kram": 10941,
  "jeneste": 10942,
  "nDanish": 10943,
  "▁öv": 10944,
  "erande": 10945,
  "▁bær": 10946,
  "▁spår": 10947,
  "punkter": 10948,
  "▁qual": 10949,
  "▁ladd": 10950,
  "▁Roman": 10951,
  "Che": 10952,
  "amed": 10953,
  "▁village": 10954,
  "DB": 10955,
  "▁nearly": 10956,
  "bær": 10957,
  "onna": 10958,
  "edrag": 10959,
  "▁Object": 10960,
  "Inst": 10961,
  "▁inklusive": 10962,
  "▁lugn": 10963,
  "chester": 10964,
  "ningens": 10965,
  "▁Norska": 10966,
  "▁virus": 10967,
  "▁løb": 10968,
  "▁PM": 10969,
  "▁increasing": 10970,
  "▁konfer": 10971,
  "▁seven": 10972,
  "olin": 10973,
  "▁fully": 10974,
  "▁rättigheter": 10975,
  "▁missing": 10976,
  "▁opinion": 10977,
  "▁måndag": 10978,
  "▁Wil": 10979,
  "▁hinanden": 10980,
  "▁verktyg": 10981,
  "årige": 10982,
  "räd": 10983,
  "▁lista": 10984,
  "félag": 10985,
  "rand": 10986,
  "▁akkurat": 10987,
  "▁Hos": 10988,
  "///": 10989,
  "▁tilg": 10990,
  "ubl": 10991,
  "▁agreed": 10992,
  "Group": 10993,
  "▁por": 10994,
  "uri": 10995,
  "adata": 10996,
  "▁samling": 10997,
  "▁psych": 10998,
  "▁greater": 10999,
  "▁ordentligt": 11000,
  "▁bø": 11001,
  "▁advice": 11002,
  "ét": 11003,
  "nIdag": 11004,
  "▁finished": 11005,
  "▁säson": 11006,
  "wa": 11007,
  "▁pressure": 11008,
  "▁befinner": 11009,
  "▁['\"": 11010,
  "▁impact": 11011,
  "▁convert": 11012,
  "▁daughter": 11013,
  "▁db": 11014,
  "vise": 11015,
  "fot": 11016,
  "▁högsta": 11017,
  "▁appeared": 11018,
  "▁køre": 11019,
  "uft": 11020,
  "▁Fot": 11021,
  "▁Nyheter": 11022,
  "▁Visa": 11023,
  "▁Forsk": 11024,
  "▁tekster": 11025,
  "enhet": 11026,
  "PA": 11027,
  "▁klasse": 11028,
  "▁Pen": 11029,
  "▁Väster": 11030,
  "▁tol": 11031,
  "▁Hitta": 11032,
  "▁dejting": 11033,
  "▁hang": 11034,
  "gerne": 11035,
  "▁hän": 11036,
  "▁surpr": 11037,
  "celona": 11038,
  "▁Gi": 11039,
  "▁oversætter": 11040,
  "örj": 11041,
  "▁drikke": 11042,
  "▁valde": 11043,
  "ABLE": 11044,
  "▁protest": 11045,
  "änta": 11046,
  "▁mä": 11047,
  "▁russ": 11048,
  "▁interested": 11049,
  "▁opmær": 11050,
  "▁older": 11051,
  "outube": 11052,
  "▁street": 11053,
  "ættes": 11054,
  "SM": 11055,
  "kommande": 11056,
  "msg": 11057,
  "ashion": 11058,
  "annelse": 11059,
  "nAlla": 11060,
  "false": 11061,
  "vard": 11062,
  "▁News": 11063,
  "▁Lord": 11064,
  "näm": 11065,
  "dev": 11066,
  "▁OK": 11067,
  "utive": 11068,
  "▁Cath": 11069,
  "agne": 11070,
  "▁Law": 11071,
  "▁ringa": 11072,
  "▁effective": 11073,
  "▁värt": 11074,
  "End": 11075,
  "uls": 11076,
  "▁tåg": 11077,
  "▁brain": 11078,
  "stak": 11079,
  "▁förändring": 11080,
  "▁betydelig": 11081,
  "▁EX": 11082,
  "sels": 11083,
  "▁næring": 11084,
  "▁faller": 11085,
  "▁seneste": 11086,
  "▁Får": 11087,
  "▁uppskatt": 11088,
  "▁veter": 11089,
  "abetes": 11090,
  "▁earth": 11091,
  "inda": 11092,
  "atisfied": 11093,
  "umär": 11094,
  "▁essential": 11095,
  "▁mäng": 11096,
  "▁behovet": 11097,
  "SR": 11098,
  "▁närmare": 11099,
  "▁tå": 11100,
  "▁neder": 11101,
  "▁appreci": 11102,
  "▁Från": 11103,
  "▁kombiner": 11104,
  "watch": 11105,
  "▁serious": 11106,
  "▁utvid": 11107,
  "▁Marie": 11108,
  "ederal": 11109,
  "▁tydelig": 11110,
  "ikip": 11111,
  "▁spect": 11112,
  "uge": 11113,
  "▁utsikt": 11114,
  "▁Big": 11115,
  "▁reager": 11116,
  "▁heavy": 11117,
  "lav": 11118,
  "▁mamm": 11119,
  "▁spesial": 11120,
  "▁kommende": 11121,
  "steder": 11122,
  "▁Health": 11123,
  "▁nødvendige": 11124,
  "nSte": 11125,
  "draget": 11126,
  "▁ák": 11127,
  "▁sikkerhet": 11128,
  "▁Royal": 11129,
  "▁personlige": 11130,
  "industri": 11131,
  "▁animal": 11132,
  "nFr": 11133,
  "▁Mars": 11134,
  "taler": 11135,
  "lers": 11136,
  "pers": 11137,
  "▁hunden": 11138,
  "▁hittade": 11139,
  "Image": 11140,
  "▁piece": 11141,
  "ws": 11142,
  "}_": 11143,
  "annet": 11144,
  "▁konfl": 11145,
  "▁III": 11146,
  "alender": 11147,
  "nPer": 11148,
  "rats": 11149,
  "▁lese": 11150,
  "▁$$\\\\": 11151,
  "▁gläd": 11152,
  "▁basert": 11153,
  "▁reasons": 11154,
  "▁naturligt": 11155,
  "▁weekend": 11156,
  "▁kunden": 11157,
  "▁röd": 11158,
  "▁informer": 11159,
  "GG": 11160,
  "nVed": 11161,
  "▁imod": 11162,
  "▁Ev": 11163,
  "▁tydligen": 11164,
  "▁Wal": 11165,
  "▁visse": 11166,
  "azz": 11167,
  "▁begy": 11168,
  "▁stär": 11169,
  "▁hållbar": 11170,
  "▁sällan": 11171,
  "▁domin": 11172,
  "Width": 11173,
  "lementer": 11174,
  "ografer": 11175,
  "▁säng": 11176,
  "▁antar": 11177,
  "Exp": 11178,
  "▁dyg": 11179,
  "▁sentr": 11180,
  "▁Bost": 11181,
  "▁nemt": 11182,
  "▁Express": 11183,
  "▁sample": 11184,
  "ye": 11185,
  "▁eye": 11186,
  "▁neut": 11187,
  "▁skuld": 11188,
  "illy": 11189,
  "lån": 11190,
  "spros": 11191,
  "▁Journal": 11192,
  "jack": 11193,
  "▁heat": 11194,
  "▁unna": 11195,
  "▁kompetanse": 11196,
  "▁kraftig": 11197,
  "▁betalar": 11198,
  "▁utgangspunkt": 11199,
  "▁sports": 11200,
  "▁component": 11201,
  "aktig": 11202,
  "▁oversetter": 11203,
  "▁Western": 11204,
  "▁gull": 11205,
  "Sub": 11206,
  "▁overfl": 11207,
  "▁kött": 11208,
  "▁MA": 11209,
  "ägare": 11210,
  "▁perhaps": 11211,
  "job": 11212,
  "GB": 11213,
  "▁omöj": 11214,
  "▁Research": 11215,
  "frågan": 11216,
  "▁resources": 11217,
  "▁hr": 11218,
  "rive": 11219,
  "▁maten": 11220,
  "▁repar": 11221,
  "▁larger": 11222,
  "imin": 11223,
  "dels": 11224,
  "▁økonomi": 11225,
  "▁naturligtvis": 11226,
  "▁finger": 11227,
  "▁automatisk": 11228,
  "▁onto": 11229,
  "▁customer": 11230,
  "nArt": 11231,
  "lements": 11232,
  "▁California": 11233,
  "▁Bad": 11234,
  "▁pengarna": 11235,
  "▁revolution": 11236,
  "iano": 11237,
  "▁grun": 11238,
  "isar": 11239,
  ")(": 11240,
  "▁College": 11241,
  "▁diet": 11242,
  "ermine": 11243,
  "▁åsikter": 11244,
  "▁truth": 11245,
  "▁territ": 11246,
  "▁grunnlag": 11247,
  "▁engang": 11248,
  "▁Samtidig": 11249,
  "▁Hor": 11250,
  "itable": 11251,
  "ätter": 11252,
  "▁rejse": 11253,
  "lyser": 11254,
  "▁vinst": 11255,
  "▁underl": 11256,
  "Sele": 11257,
  "})\\": 11258,
  ".....": 11259,
  "▁harmon": 11260,
  "▁separate": 11261,
  "▁født": 11262,
  "▁aktie": 11263,
  "▁handels": 11264,
  "▁troub": 11265,
  "▁fundet": 11266,
  "▁cat": 11267,
  "▁debatt": 11268,
  "war": 11269,
  "▁grill": 11270,
  "▁generally": 11271,
  "ledare": 11272,
  "▁sentrum": 11273,
  "orier": 11274,
  "▁fakta": 11275,
  "▁math": 11276,
  "køb": 11277,
  "▁Råd": 11278,
  "▁lösning": 11279,
  "▁betalt": 11280,
  "▁ursprung": 11281,
  "itchen": 11282,
  "▁diam": 11283,
  "django": 11284,
  "▁átt": 11285,
  "▁förklara": 11286,
  "nab": 11287,
  "▁varken": 11288,
  "sex": 11289,
  "▁Band": 11290,
  "▁uh": 11291,
  "▁pus": 11292,
  "▁fön": 11293,
  "nWith": 11294,
  "stream": 11295,
  "▁rap": 11296,
  "▁multi": 11297,
  "▁besøk": 11298,
  "▁Radio": 11299,
  "leva": 11300,
  "▁repla": 11301,
  "icon": 11302,
  "▁Jensen": 11303,
  "▁Dub": 11304,
  "läggning": 11305,
  "nDa": 11306,
  "orea": 11307,
  "▁immun": 11308,
  "▁»\\": 11309,
  "cos": 11310,
  "▁mandag": 11311,
  "▁Ron": 11312,
  "oz": 11313,
  "▁Bygg": 11314,
  "▁Nav": 11315,
  "▁samty": 11316,
  "riage": 11317,
  "kontroll": 11318,
  "▁clin": 11319,
  "Sty": 11320,
  "▁consum": 11321,
  "▁Champions": 11322,
  "▁bomb": 11323,
  "▁Rel": 11324,
  "kald": 11325,
  "▁sprog": 11326,
  "▁lämnar": 11327,
  "staden": 11328,
  "frågor": 11329,
  "▁Skriv": 11330,
  "▁behavior": 11331,
  "files": 11332,
  "▁håret": 11333,
  "▁storlek": 11334,
  "▁bought": 11335,
  "Number": 11336,
  "verks": 11337,
  "▁highly": 11338,
  "bring": 11339,
  "urance": 11340,
  "Context": 11341,
  "izz": 11342,
  "▁ba": 11343,
  "brans": 11344,
  "▁nærings": 11345,
  "▁tycka": 11346,
  "conds": 11347,
  "▁Gj": 11348,
  "▁engag": 11349,
  "▁kræver": 11350,
  "▁receive": 11351,
  "▁jern": 11352,
  "▁avl": 11353,
  "jerne": 11354,
  "▁görs": 11355,
  "▁Wall": 11356,
  "oer": 11357,
  "▁forg": 11358,
  "▁beyond": 11359,
  "uen": 11360,
  "▁ökad": 11361,
  "▁tredj": 11362,
  "▁limited": 11363,
  "nVid": 11364,
  "▁injur": 11365,
  "rus": 11366,
  "GR": 11367,
  "▁girls": 11368,
  "▁sättet": 11369,
  "prop": 11370,
  "▁fólk": 11371,
  "▁tæ": 11372,
  "Är": 11373,
  "FO": 11374,
  "▁Copyright": 11375,
  "▁mock": 11376,
  "oly": 11377,
  "▁breath": 11378,
  "sterne": 11379,
  "▁bered": 11380,
  "entet": 11381,
  "otta": 11382,
  "▁paid": 11383,
  "▁destroy": 11384,
  "idering": 11385,
  "▁förbättra": 11386,
  "▁Indian": 11387,
  "▁flest": 11388,
  "fal": 11389,
  "elserne": 11390,
  "▁Parl": 11391,
  "▁tilkn": 11392,
  "▁hash": 11393,
  "igar": 11394,
  "▁flas": 11395,
  "Message": 11396,
  "▁skru": 11397,
  "▁oppdater": 11398,
  "satte": 11399,
  "▁sites": 11400,
  "smil": 11401,
  "dam": 11402,
  "▁fastighet": 11403,
  "▁ødel": 11404,
  "nJoh": 11405,
  "▁resist": 11406,
  "Lay": 11407,
  "elag": 11408,
  "▁mängd": 11409,
  "emark": 11410,
  "pdf": 11411,
  "▁Problem": 11412,
  "fnd": 11413,
  "uelle": 11414,
  "tryck": 11415,
  "▁utrym": 11416,
  "nNorwegian": 11417,
  "▁fans": 11418,
  "stal": 11419,
  "bour": 11420,
  "▁virksomhet": 11421,
  "osite": 11422,
  "▁håper": 11423,
  "▁husband": 11424,
  "erende": 11425,
  "pload": 11426,
  "keys": 11427,
  "▁einnig": 11428,
  "▁expert": 11429,
  "▁married": 11430,
  "▁spl": 11431,
  "▁sämre": 11432,
  "▁Love": 11433,
  "▁bilar": 11434,
  "orther": 11435,
  "▁antib": 11436,
  "▁datorn": 11437,
  "▁billigt": 11438,
  "▁hate": 11439,
  "▁afsl": 11440,
  "DIT": 11441,
  "▁Dersom": 11442,
  "▁INTE": 11443,
  "▁Kim": 11444,
  "▁hend": 11445,
  "▁train": 11446,
  "▁Richard": 11447,
  "▁situationer": 11448,
  "▁starten": 11449,
  "▁fören": 11450,
  "▁lun": 11451,
  "related": 11452,
  "▁karakt": 11453,
  "▁Kort": 11454,
  "idor": 11455,
  "nment": 11456,
  "Content": 11457,
  "▁Bi": 11458,
  "mande": 11459,
  "▁Mitt": 11460,
  "exec": 11461,
  "yttes": 11462,
  "Box": 11463,
  "▁😁": 11464,
  "▁bedst": 11465,
  "▁kampan": 11466,
  "eman": 11467,
  "▁il": 11468,
  "legt": 11469,
  "Ob": 11470,
  "▁Div": 11471,
  "▁Fa": 11472,
  "▁taka": 11473,
  "values": 11474,
  "▁undersø": 11475,
  "▁resurser": 11476,
  "änns": 11477,
  "▁Real": 11478,
  "adow": 11479,
  "asjer": 11480,
  "ffet": 11481,
  "▁frist": 11482,
  "▁existing": 11483,
  "oring": 11484,
  "which": 11485,
  "?\"]": 11486,
  "▁dir": 11487,
  "▁veien": 11488,
  "ikipedia": 11489,
  "▁poeng": 11490,
  "▁miner": 11491,
  "lysning": 11492,
  "ouch": 11493,
  "▁Noen": 11494,
  "ools": 11495,
  "▁Jør": 11496,
  "▁fjöl": 11497,
  "▁Rev": 11498,
  "yer": 11499,
  "▁växer": 11500,
  "Bar": 11501,
  "tocol": 11502,
  "▁[],": 11503,
  "nHvordan": 11504,
  "Color": 11505,
  "▁finna": 11506,
  "▁SEK": 11507,
  "▁establish": 11508,
  "esc": 11509,
  "ografi": 11510,
  "▁alternative": 11511,
  "place": 11512,
  "▁Road": 11513,
  "▁faa": 11514,
  "▁sed": 11515,
  "visa": 11516,
  "nAfter": 11517,
  "▁Cast": 11518,
  "▁trend": 11519,
  "▁okkar": 11520,
  "▁konsekvens": 11521,
  "▁frukost": 11522,
  "▁tryg": 11523,
  "▁sekunder": 11524,
  "nTy": 11525,
  "apeut": 11526,
  "▁Ó": 11527,
  "jälp": 11528,
  "ærm": 11529,
  "▁sqrt": 11530,
  "▁Party": 11531,
  "▁vision": 11532,
  "nOr": 11533,
  "▁Led": 11534,
  "▁spare": 11535,
  "▁givetvis": 11536,
  "attering": 11537,
  "▁Member": 11538,
  "▁Hu": 11539,
  "istics": 11540,
  "▁daily": 11541,
  "Out": 11542,
  "rej": 11543,
  "kare": 11544,
  "▁fav": 11545,
  "troende": 11546,
  "▁relater": 11547,
  "non": 11548,
  "▁animals": 11549,
  "▁eleg": 11550,
  "▁teknologi": 11551,
  "▁demand": 11552,
  "▁kamera": 11553,
  "▁combin": 11554,
  "wers": 11555,
  "▁restauranter": 11556,
  "Em": 11557,
  "▁begin": 11558,
  "▁partners": 11559,
  "QU": 11560,
  "▁anonym": 11561,
  "▁Cons": 11562,
  "eringer": 11563,
  "▁deriv": 11564,
  "apy": 11565,
  "▁plötsligt": 11566,
  "endørs": 11567,
  "cean": 11568,
  "▁Techn": 11569,
  "▁Gran": 11570,
  "▁foreign": 11571,
  "▁Helt": 11572,
  "delingen": 11573,
  "▁lägenhet": 11574,
  "▁highest": 11575,
  "uting": 11576,
  "Start": 11577,
  "▁repl": 11578,
  "▁texter": 11579,
  "ternativ": 11580,
  "▁Gru": 11581,
  "▁risken": 11582,
  "▁ER": 11583,
  "▁pair": 11584,
  "▁Because": 11585,
  "▁samlede": 11586,
  "▁utvecklingen": 11587,
  "▁successful": 11588,
  "pone": 11589,
  "mission": 11590,
  "önt": 11591,
  "▁raskt": 11592,
  "dene": 11593,
  "▁byr": 11594,
  "eget": 11595,
  "▁sektor": 11596,
  "▁faktor": 11597,
  "▁charge": 11598,
  "appar": 11599,
  "▁definitely": 11600,
  "▁lyssna": 11601,
  "▁skaffa": 11602,
  "▁starta": 11603,
  "yre": 11604,
  "▁spread": 11605,
  "▁Tar": 11606,
  "▁stopped": 11607,
  "▁fris": 11608,
  "▁mej": 11609,
  "amman": 11610,
  "▁lettere": 11611,
  "▁lif": 11612,
  "▁planet": 11613,
  "lacement": 11614,
  "BA": 11615,
  "▁sade": 11616,
  "▁kvalit": 11617,
  "▁lust": 11618,
  "▁Associ": 11619,
  "▁regn": 11620,
  "▁undvika": 11621,
  "▁viktigste": 11622,
  "▁ond": 11623,
  "▁okej": 11624,
  "project": 11625,
  "▁Fler": 11626,
  "▁gransk": 11627,
  "▁campaign": 11628,
  "▁Norway": 11629,
  "cha": 11630,
  "nJust": 11631,
  "▁Soft": 11632,
  "▁Los": 11633,
  "▁allows": 11634,
  "▁tablet": 11635,
  "▁Dal": 11636,
  "▁bilde": 11637,
  "▁female": 11638,
  "▁þó": 11639,
  "▁Carol": 11640,
  "▁Had": 11641,
  "▁,\\": 11642,
  "rant": 11643,
  "▁inled": 11644,
  "ingly": 11645,
  "▁edge": 11646,
  "▁utstyr": 11647,
  "▁åtminstone": 11648,
  "util": 11649,
  "▁desto": 11650,
  "▁Reyk": 11651,
  "▁mouth": 11652,
  "▁forms": 11653,
  "▁organisationer": 11654,
  "▁tirsdag": 11655,
  "▁utgång": 11656,
  "▁parameters": 11657,
  "▁Ukra": 11658,
  "enteret": 11659,
  "grader": 11660,
  "▁>=": 11661,
  "▁forfatter": 11662,
  "fjord": 11663,
  "▁stær": 11664,
  "fru": 11665,
  "▁Master": 11666,
  "viser": 11667,
  "▁matemat": 11668,
  "▁otherwise": 11669,
  "▁underst": 11670,
  "▁liker": 11671,
  "▁Guð": 11672,
  "mester": 11673,
  "▁Kristian": 11674,
  "▁Plus": 11675,
  "▁tradis": 11676,
  "ländska": 11677,
  "▁Statens": 11678,
  "▁ml": 11679,
  "%)": 11680,
  "▁Texas": 11681,
  "vill": 11682,
  "▁vises": 11683,
  "▁turen": 11684,
  "aked": 11685,
  "▁kommande": 11686,
  "▁).": 11687,
  "▁]\\": 11688,
  "▁idrott": 11689,
  "▁orkar": 11690,
  "▁dete": 11691,
  "øve": 11692,
  "▁gett": 11693,
  "▁king": 11694,
  "behov": 11695,
  "▁eksempl": 11696,
  "▁gent": 11697,
  "▁uppgift": 11698,
  "ENS": 11699,
  "▁niður": 11700,
  "?.": 11701,
[...]
